, 120468
. 100123
the 78776
to 49428
of 46368
a 43909
and 43194
that 35355
I 32004
in 30017
is 25687
you 24781
it 23954
&apos;s 22611
we 21542
And 17153
this 16356
&quot; 13841
was 11850
for 11415
on 11413
are 11304
have 10743
-- 10481
they 10169
with 9901
can 9291
? 9039
&apos;t 8725
what 8707
So 8591
about 8394
be 8163
at 7971
as 7775
an 7484
all 7445
: 7251
not 7081
do 6889
one 6719
there 6666
&apos;re 6635
It 6499
like 6373
or 6291
people 6262
my 6236
from 6163
so 5942
but 5555
our 5537
ing 5253
ed 5250
The 5199
me 5137
just 5115
very 5083
We 5014
out 4961
But 4928
if 4862
these 4812
by 4717
them 4624
know 4570
going 4553
up 4542
he 4302
more 4284
when 4265
us 4185
had 4148
because 4108
think 4077
see 4000
which 3906
your 3899
their 3893
how 3870
who 3869
es 3844
re@@ 3836
get 3822
were 3800
really 3741
would 3700
&apos;ve 3679
time 3554
You 3514
way 3415
here 3409
&apos;m 3391
world 3391
This 3389
has 3343
s 3291
then 3290
c@@ 3242
into 3205
some 3192
in@@ 3169
actually 3147
don 3119
-@@ 3117
y 3087
where 3046
years 3010
will 2965
things 2930
now 2929
go 2897
other 2852
Now 2837
want 2815
could 2731
They 2729
make 2696
been 2669
p@@ 2594
b@@ 2557
said 2466
right 2433
something 2406
thing 2394
al 2382
than 2369
no 2309
those 2292
much 2290
able 2242
un@@ 2238
first 2235
two 2234
little 2217
got 2210
also 2186
d@@ 2164
t@@ 2161
s@@ 2141
work 2115
look 2112
say 2109
back 2103
over 2101
In 2099
his 2095
♫ 2079
That 2073
ation 2063
y@@ 2038
life 2022
only 2010
she 1968
most 1967
What 1966
g@@ 1907
kind 1900
e@@ 1891
need 1890
S@@ 1889
even 1887
new 1874
take 1874
many 1859
lot 1859
good 1805
f@@ 1800
C@@ 1781
ate 1766
There 1753
did 1749
her 1748
around 1739
i@@ 1729
en@@ 1727
h@@ 1693
different 1692
a@@ 1684
down 1681
come 1668
day 1668
st@@ 1663
m@@ 1657
through 1647
o 1644
&apos;ll 1643
er 1637
di@@ 1637
ch@@ 1628
use 1622
t 1612
its 1611
; 1607
ti@@ 1607
ar@@ 1601
li@@ 1580
Well 1572
ted 1559
or@@ 1558
same 1557
ated 1552
o@@ 1541
ri@@ 1534
tion 1532
ts 1513
being 1506
ally 1504
w@@ 1502
ers 1487
doing 1486
every 1476
If 1461
A@@ 1459
He 1458
l@@ 1457
con@@ 1454
ly 1443
put 1427
e 1425
r@@ 1421
co@@ 1415
an@@ 1414
ic 1366
called 1361
three 1352
percent 1350
made 1344
on@@ 1342
any 1333
talk 1327
B@@ 1320
p 1310
v@@ 1301
el@@ 1296
ad@@ 1289
ting 1286
tions 1286
dis@@ 1285
A 1274
&apos;d 1273
de@@ 1268
ro@@ 1263
change 1260
le 1255
human 1250
ac@@ 1235
th@@ 1232
well 1218
i 1218
ds 1217
TED 1213
own 1212
H@@ 1211
ve 1210
sh@@ 1206
why 1202
find 1201
R@@ 1197
fact 1196
pro@@ 1187
tell 1182
ations 1175
ous 1175
year 1172
E@@ 1170
let 1169
al@@ 1167
ent 1166
today 1158
idea 1149
P@@ 1144
didn 1143
T@@ 1142
M@@ 1142
end 1137
should 1129
after 1129
L@@ 1117
went 1106
started 1105
m 1102
it@@ 1095
before 1095
important 1090
great 1086
off 1084
at@@ 1072
course 1069
last 1065
as@@ 1061
ma@@ 1061
place 1059
give 1059
big 1054
another 1049
used 1047
k@@ 1047
better 1042
j@@ 1042
age 1042
D@@ 1040
bit 1038
ating 1031
brain 1031
u@@ 1028
lo@@ 1027
story 1023
might 1021
se@@ 1016
thought 1016
Thank 1001
still 999
ago 995
water 992
together 988
ce 987
technology 985
ab@@ 984
start 982
part 982
him 973
never 973
show 971
problem 966
came 963
ap@@ 962
next 960
op@@ 958
em@@ 956
est 953
N@@ 952
system 951
old 948
When 946
does 945
als 944
man 937
pre@@ 934
ever 932
l 931
F@@ 927
le@@ 925
less 921
ine 920
few 914
each 913
d 910
et@@ 910
again 908
too 908
looking 904
ary 903
ex@@ 902
n@@ 901
question 900
ra@@ 899
mean 895
de 895
sp@@ 891
ant 890
How 888
data 888
ul@@ 887
between 886
women 882
point 877
th 873
&apos; 873
Because 873
am@@ 873
ec@@ 873
G@@ 864
love 863
qu@@ 859
am 858
Talk 853
found 851
ar 849
es@@ 847
ke 846
long 845
ded 843
O@@ 842
done 838
example 837
h 835
ter 831
J@@ 831
children 830
working 828
er@@ 828
using 827
wanted 823
live 822
te 821
bi@@ 821
ol@@ 820
sort 817
doesn 815
ding 810
understand 809
ans 801
ck 800
be@@ 800
ors 800
tive 799
ic@@ 796
help 795
Subtitles 791
Transcript 791
call 790
whole 789
million 788
inter@@ 784
po@@ 784
ch 780
may 779
com@@ 777
try 774
ks 772
pl@@ 771
10 771
real 765
is@@ 764
per@@ 763
I@@ 763
school 763
away 762
believe 761
body 760
king 760
feel 760
trying 759
! 754
light 752
om@@ 752
power 750
person 750
ty 748
sc@@ 746
ves 744
always 743
car@@ 743
si@@ 728
os@@ 728
ings 727
ity 726
country 724
ment 724
design 722
rel@@ 722
vi@@ 721
tri@@ 720
four 719
space 719
maybe 717
comes 716
create 711
ci@@ 706
K@@ 705
kids 705
la@@ 704
side 702
become 701
tic 701
information 697
k 695
ties 694
ure 692
bo@@ 690
thinking 688
One 687
ph@@ 686
small 686
tra@@ 684
ance 683
.@@ 682
im@@ 680
red 679
took 678
quite 677
par@@ 673
making 671
ved 669
ur@@ 668
means 667
to@@ 667
energy 663
W@@ 663
everything 662
My 657
building 655
sense 655
ge@@ 655
getting 654
number 653
pe@@ 653
ir@@ 653
future 651
ask 651
play 650
her@@ 647
second 645
der 644
These 644
She 643
ist 642
ms 641
ons 640
gra@@ 639
five 637
men 637
n 635
says 635
ins 634
happened 634
form 630
ag@@ 628
talking 628
left 627
money 626
Why 624
ely 623
c 623
build 623
ne@@ 619
enough 619
ful 619
food 617
best 617
times 615
ways 613
set 613
lives 613
ical 612
home 611
res@@ 606
Let 605
ent@@ 602
probably 602
social 602
makes 600
care 600
interesting 596
um 594
Here 594
el 592
such 592
pretty 591
b 591
seen 591
ver@@ 591
told 590
ates 586
countries 586
ability 586
stuff 585
ents 584
um@@ 584
anything 584
ta@@ 584
te@@ 584
across 583
se 582
else 581
et 581
cl@@ 581
su@@ 574
Africa 574
dollars 572
asked 572
x 569
3@@ 568
without 568
room 567
moment 565
No 564
ou@@ 564
while 564
des 560
20 560
ones 560
ast@@ 560
no@@ 559
hard 558
for@@ 557
case 556
g 555
experience 553
problems 551
gl@@ 550
happen 549
coming 549
ence 548
move 546
science 546
hand 544
living 542
having 539
happens 539
city 539
ter@@ 535
learn 533
For 533
min@@ 532
ay 531
gu@@ 531
As 527
do@@ 527
ies 526
goes 526
saw 526
half 523
simple 522
sub@@ 522
au@@ 522
reason 520
ry 520
later 519
pi@@ 519
ving 517
we@@ 516
whether 515
over@@ 515
mind 514
basically 514
family 513
bad 512
ble 511
ics 510
picture 509
saying 508
face 508
ni@@ 507
oc@@ 506
almost 506
book 505
cor@@ 505
il@@ 505
pri@@ 505
days 504
hi@@ 504
gr@@ 502
health 502
cre@@ 501
go@@ 501
high 500
bu@@ 499
ut@@ 499
possible 499
yet 498
answer 497
&#91; 496
&#93; 496
sure 495
50 493
computer 492
mar@@ 492
ot@@ 492
per 490
history 489
’ 489
line 488
global 487
ideas 487
f 486
trans@@ 486
top 486
business 485
car 485
true 484
est@@ 484
us@@ 483
planet 482
someone 481
far 480
guy 480
process 479
looked 477
pres@@ 477
All 477
young 476
les 476
art 473
bring 470
words 470
often 470
har@@ 469
inside 469
heard 469
United 468
under@@ 467
order 466
id 466
na@@ 466
gets 465
within 464
once 463
sk@@ 463
mon@@ 462
dic@@ 462
project 459
matter 459
ws 459
already 458
land 458
son 457
ness 456
New 455
ev@@ 455
en 454
... 454
dra@@ 453
child 453
open 452
tr@@ 452
single 451
da@@ 451
so@@ 450
man@@ 449
word 449
gi@@ 448
stories 448
and@@ 447
nothing 447
public 447
ob@@ 447
Earth 446
ep@@ 445
hope 445
fac@@ 445
br@@ 444
community 444
ters 444
cells 444
fe@@ 444
looks 444
both 443
ill@@ 442
language 442
beautiful 442
group 440
e-@@ 440
30 439
read 439
cancer 439
keep 438
led 438
control 438
wrong 438
z@@ 436
view 434
sur@@ 434
ice 433
ck@@ 433
wing 433
works 433
night 432
government 431
ge 431
imagine 431
2@@ 430
amazing 429
remember 428
job 427
wi@@ 426
species 426
six 426
months 426
fi@@ 425
billion 425
str@@ 425
mo@@ 425
ia 424
gs 424
myself 423
turn 422
animals 422
nature 420
video 420
couple 419
States 418
fl@@ 418
ass@@ 417
wasn 417
ber@@ 415
ism 415
music 415
India 415
Th@@ 414
0s 414
decided 414
ked 414
hear 414
ver 412
minutes 412
cks 411
4@@ 411
sa@@ 411
ched 411
front 411
stop 409
up@@ 408
ze 406
head 406
war@@ 406
questions 406
ning 405
everybody 403
education 403
mis@@ 402
bar@@ 402
comp@@ 401
places 401
taking 401
d-@@ 401
ging 401
ying 400
ourselves 400
ses 400
col@@ 400
ho@@ 400
Al@@ 400
wh@@ 400
sion 400
universe 400
ei@@ 399
der@@ 398
state 397
until 396
off@@ 396
students 396
became 396
level 395
research 395
out@@ 395
built 395
America 394
Internet 394
completely 393
imp@@ 393
study 393
me@@ 393
run 393
gen@@ 392
w 392
ps 391
tor 390
fish 390
sing 390
piece 389
sta@@ 389
mother 388
turns 387
hours 387
happening 387
dr@@ 386
share 386
though 386
isn 386
mi@@ 386
ru@@ 385
under 385
exactly 385
woman 384
the@@ 384
itself 384
tical 384
V@@ 382
house 382
Y@@ 382
mat@@ 382
company 381
model 381
since 380
sound 380
ger 379
friends 378
des@@ 377
bur@@ 376
100 376
ments 375
everyone 375
culture 375
somebody 374
ined 373
pa@@ 373
American 372
sometimes 372
century 371
20@@ 371
name 370
knew 370
ast 370
against 370
themselves 370
happy 368
China 368
phone 367
disease 367
kinds 366
society 366
sen@@ 365
OK 365
others 364
ing@@ 364
ys 363
ali@@ 363
ther 363
ill 363
ig@@ 361
cap@@ 361
heart 361
ste@@ 361
learned 361
flo@@ 360
ase 359
huge 359
gener@@ 359
enti@@ 358
tu@@ 358
y-@@ 357
must 357
news 356
U@@ 355
rather 355
large 355
won 355
game 355
war 355
Okay 355
created 354
ders 354
particular 354
bro@@ 353
x@@ 353
blo@@ 352
Then 352
19@@ 350
dep@@ 350
Oh 349
based 348
— 348
key 347
cra@@ 346
fa@@ 346
vis@@ 345
ect 345
turned 344
pos@@ 344
wor@@ 344
figure 343
instead 343
God 342
♪ 342
gave 341
ically 341
ots 341
couldn 341
,000 340
shows 340
5@@ 339
ative 339
bl@@ 339
ose 339
systems 337
ici@@ 337
fra@@ 336
least 336
2 336
thousands 335
ft 335
zed 335
lots 335
worked 334
early 334
cr@@ 334
rec@@ 333
moving 333
low 333
air 332
environment 332
natural 332
changed 332
cli@@ 331
ling 331
cy 331
given 331
Con@@ 330
3 330
guys 330
size 330
sts 330
ear@@ 330
taken 329
fin@@ 329
stri@@ 328
third 328
ten@@ 328
dy 328
In@@ 326
difference 326
past 326
bre@@ 326
father 326
ator 325
scale 325
powerful 325
market 325
cities 324
ously 324
learning 324
outside 323
difficult 323
ces 322
can@@ 322
bor@@ 321
finally 321
entire 320
gh@@ 320
mus@@ 320
walk 319
common 318
along 318
lu@@ 318
ak@@ 318
self-@@ 318
paper 317
machine 317
cur@@ 317
sho@@ 317
close 317
pla@@ 317
free 317
lin@@ 316
os 316
behind 316
den@@ 316
ie 314
all@@ 313
force 313
cost 312
il 312
dly 312
ges 312
ward 312
15 311
ocean 311
ue 310
needs 310
ned 310
ged 310
Do 310
inv@@ 309
during 309
population 309
ran@@ 309
aff@@ 309
felt 309
Or 309
certain 309
test 308
economic 308
collec@@ 308
parents 308
prot@@ 308
ement 307
ha@@ 307
exp@@ 306
7@@ 306
perhaps 306
Le@@ 306
yourself 305
seven 305
wn 304
oil 304
cell 304
media 304
friend 303
tried 303
behavior 303
stra@@ 303
ground 302
ion 302
eyes 302
ct 301
Is 301
ected 301
York 301
takes 300
wer 300
born 300
amount 299
ad 299
inc@@ 299
easy 298
psych@@ 298
area 297
wa@@ 296
terms 296
ages 296
att@@ 296
black 295
beginning 295
parts 295
simply 295
Mar@@ 295
full 294
hands 294
ship 293
tion@@ 293
whatever 293
Mo@@ 292
People 292
ell 292
seeing 292
ker 292
fly 291
ser@@ 291
At 291
ban@@ 291
Ma@@ 290
leave 290
known 290
stor@@ 290
he@@ 289
Ch@@ 288
cri@@ 288
mate 287
sel@@ 287
team 287
ches 287
cul@@ 287
DNA 286
grow 286
ca@@ 286
complex 286
wonderful 285
U.S. 284
ture 284
ster 284
began 283
ven@@ 283
cannot 283
ey 282
tically 282
quickly 282
zing 282
An@@ 282
rest 282
tional 281
reality 281
oo@@ 281
pic@@ 281
r 281
opportunity 280
spent 280
companies 280
week 279
ently 279
Re@@ 279
stage 279
fil@@ 279
realized 279
humans 278
middle 277
ats 277
needed 277
developed 277
clear 277
rate 277
growth 277
poor 276
act 276
incredible 276
app@@ 276
ga@@ 276
areas 275
economy 275
6@@ 275
ining 275
hor@@ 275
gives 275
local 275
death 274
books 274
D 274
ular 274
den 274
8@@ 273
lost 273
interested 273
political 273
eat 272
ars 272
gre@@ 272
re 271
sitting 271
fer@@ 271
field 270
sm@@ 270
ori@@ 270
ess 270
40 269
write 269
Some 269
8 268
feet 268
animal 268
longer 267
ens 267
challenge 267
0,000 267
jo@@ 266
hold 265
sol@@ 265
image 265
ns 264
ber 264
ality 264
ection 264
uses 264
deal 263
inf@@ 263
gar@@ 263
gone 263
ire 262
short 262
micro@@ 262
ology 262
numbers 261
met 261
sions 260
pur@@ 260
7 260
either 260
mem@@ 259
No@@ 259
mag@@ 259
mor@@ 259
forward 258
table 258
ari@@ 258
tors 257
step 257
images 256
Not 256
spend 256
weeks 256
u 256
und@@ 256
tics 256
value 255
program 255
eight 255
4 255
To 255
1@@ 255
bra@@ 255
1 254
feeling 254
ils 254
pan@@ 254
dri@@ 254
dist@@ 254
Yes 253
9@@ 253
Yeah 253
knowledge 252
Our 252
sed 252
nice 251
els 251
average 249
growing 249
Just 249
understanding 249
die 249
individual 249
grand@@ 249
brought 248
ian 248
da 248
ets 247
attention 247
bri@@ 246
ced 246
green 246
eng@@ 246
anyone 246
st 246
hab@@ 246
pay 246
air@@ 245
likely 245
risk 245
hundreds 245
inten@@ 245
sil@@ 245
del@@ 245
auth@@ 245
ore 244
buy 244
ash@@ 244
tools 244
speak 244
telling 244
map 244
changes 244
running 243
che@@ 243
ching 243
organ@@ 243
cing 243
ths 242
ite 242
structure 242
ard 242
Can 242
bed 242
hand@@ 241
0@@ 241
exc@@ 241
wat@@ 241
ju@@ 240
M 240
giving 240
ented 239
eu@@ 239
morning 239
scientists 239
ingly 238
fo@@ 238
personal 238
B 238
white 237
starting 237
creating 237
requ@@ 237
ster@@ 237
theory 237
result 237
iz@@ 236
9 236
ish 236
mine 235
win@@ 235
surface 235
climate 234
ton 234
generation 234
On 234
access 234
changing 234
millions 234
pul@@ 234
patients 234
cars 233
cop@@ 233
lic@@ 233
fied 233
C 232
technologies 232
fast 232
ists 232
tain 232
board 232
ators 232
tru@@ 231
vision 231
techni@@ 231
law 231
discovered 231
met@@ 231
sea 231
ell@@ 231
ack 231
por@@ 230
stand 230
blue 230
audience 230
World 230
seems 230
girl 230
died 230
super@@ 230
ath@@ 230
movement 230
wrote 229
allow 229
forms 229
Ar@@ 229
pt 229
normal 229
material 228
deep 228
S 227
cut 227
developing 227
tan@@ 227
12 227
ory 227
vers 227
cy@@ 227
anti@@ 227
ements 226
tation 226
wouldn 226
ines 226
issue 225
innovation 225
fun 225
Right 225
St@@ 225
recently 225
dro@@ 225
playing 225
dark 225
English 225
ment@@ 224
ple 223
bottom 223
alone 223
60 223
watch 223
om 223
yes 223
available 222
ris@@ 222
moved 222
asking 222
ety 222
poll@@ 221
soon 221
dar@@ 221
direc@@ 221
realize 221
produce 220
literally 220
voice 220
box 220
online 220
z 219
du@@ 219
perfect 219
ack@@ 219
ak 219
patient 219
impact 218
equ@@ 218
designed 218
our@@ 218
tend 218
center 218
medical 218
25 218
cer@@ 217
solve 217
source 217
fy 217
tly 216
set@@ 216
ads 216
save 216
CA 216
putting 216
bigger 216
vel@@ 216
ome 215
kid 215
fully 215
support 214
mechan@@ 214
perc@@ 214
char@@ 213
yed 213
dou@@ 213
product 213
ght 213
mal@@ 213
Be@@ 212
issues 212
expres@@ 212
tal@@ 212
relationship 212
ony 212
showed 211
enter@@ 211
film 211
knows 211
ub@@ 211
ump@@ 210
sha@@ 210
multi@@ 210
robot 210
ili@@ 210
ope 210
term 209
produc@@ 209
incredibly 209
development 209
6 209
defin@@ 209
repres@@ 209
syn@@ 209
ures 209
coun@@ 209
becomes 209
af@@ 208
5 208
199@@ 208
physical 208
evidence 208
ants 208
comm@@ 207
ist@@ 207
absolutely 207
plan@@ 207
stat@@ 207
lines 207
late 207
national 207
seem 207
oli@@ 207
lab 206
solution 206
bul@@ 206
elec@@ 206
Z@@ 205
ach@@ 205
cool 205
bes 205
vari@@ 205
color 205
aren 205
dan@@ 205
conc@@ 204
prof@@ 204
connec@@ 204
poli@@ 204
oper@@ 204
ared 204
ff@@ 204
cu@@ 204
ball 204
non-@@ 204
reasons 203
chance 203
ren@@ 203
im 203
street 203
rat@@ 203
wish 203
resources 202
ma 202
pictures 202
dem@@ 202
modern 201
writing 201
worth 201
focus 201
groups 201
haven 201
lan@@ 201
choice 200
ot 200
mit 200
inst@@ 200
fear 200
ash 200
ale 199
especially 199
cle 199
major 199
high-@@ 199
begin 199
bio@@ 199
Sh@@ 198
acc@@ 198
lived 198
tual 198
class 198
miles 198
ath 198
ended 198
quality 198
ions 198
sli@@ 197
industry 197
hundred 197
appe@@ 197
cat@@ 197
acy 197
main 197
action 196
predic@@ 196
ects 196
ency 196
beyond 196
Europe 196
potential 195
type 195
break 195
Chinese 195
speci@@ 194
top@@ 194
By 194
ink 194
shape 194
ut 193
several 193
special 193
similar 193
message 193
situation 193
ke@@ 193
teach 193
South 193
sted 193
With 192
def@@ 192
anybody 192
my@@ 192
og@@ 192
mass 192
person@@ 192
blood 192
security 192
happiness 192
ends 192
tells 192
girls 192
ales 192
ably 191
develop 191
After 191
truth 191
present 191
reach 191
guess 191
hon@@ 191
hour 191
journey 191
meet 191
fall 191
drugs 191
pen@@ 191
network 191
hum@@ 190
carbon 190
ang@@ 190
drive 190
Li@@ 190
cked 190
Gre@@ 190
loc@@ 190
involved 190
tel@@ 190
eye 190
emp@@ 190
extremely 189
cal 189
violence 189
dig@@ 189
Every 189
sive 189
vo@@ 189
ands 188
ach 188
fer 188
sent 188
amp 188
experiment 188
doc@@ 188
pped 188
talked 188
bs 188
ive 188
thank 187
hit 187
eg@@ 187
tic@@ 187
ther@@ 187
ences 187
dead 187
Car@@ 186
Where 186
vent@@ 186
formed 186
results 186
ize 186
R 186
deta@@ 186
bel@@ 186
spe@@ 186
wall 186
T 185
eless 185
strong 185
cking 185
explain 185
esc@@ 185
lea@@ 185
st-@@ 185
effect 185
sounds 184
active 184
mission 184
computers 184
tiny 184
digital 184
aging 184
onto 184
device 184
minute 183
squ@@ 183
materials 183
road 183
object 183
G 183
Google 183
office 183
ie@@ 183
ction 183
nuclear 183
ort 182
ner@@ 182
Maybe 182
approach 182
Of 182
ories 182
ame 182
bas@@ 182
spec@@ 182
lead 181
ready 181
largest 181
First 181
teachers 181
memory 181
gro@@ 181
democracy 180
connected 180
mer@@ 180
poverty 180
position 179
impro@@ 179
analy@@ 179
jobs 179
Look 179
certainly 179
software 179
ature 179
wants 179
tively 179
alized 179
clos@@ 179
yers 179
ah@@ 179
fol@@ 178
cas@@ 178
fir@@ 178
plants 178
pain@@ 178
Don 178
eth@@ 178
scientific 178
everywhere 178
meaning 178
nine 178
rich 178
schools 178
projects 177
nor@@ 177
outh 177
examples 177
meas@@ 177
leaders 177
rules 177
und 177
ily 177
compassion 177
creative 177
student 177
basic 177
80 177
baby 177
ati@@ 177
cies 177
brains 177
smart 177
door 176
named 176
ow 176
drug 176
particularly 176
Un@@ 176
medicine 176
store 176
ve@@ 176
pattern 176
interest 176
continue 175
taught 175
/ 175
plan 175
activity 175
tle 175
fis@@ 175
medi@@ 174
rop@@ 174
list 174
cket 174
usion 174
mental 174
evolution 174
higher 174
recei@@ 174
ven 174
ep 173
cle@@ 173
ational 173
among 173
finding 173
towards 173
O 173
obviously 173
nobody 173
regi@@ 173
La@@ 173
identi@@ 173
Chris 172
ration 172
exciting 172
cause 172
provi@@ 172
mu@@ 172
uni@@ 172
disc@@ 172
ess@@ 172
recor@@ 172
sters 172
thre@@ 172
ner 172
sex 172
yer 172
send 172
biggest 171
sorts 171
ills 171
speed 171
whe@@ 171
pieces 171
notice 171
starts 171
det@@ 171
games 171
communities 170
solar 170
period 170
lose 170
ately 170
rap@@ 170
camera 170
back@@ 170
dence 170
teacher 170
hol@@ 170
prin@@ 169
tures 169
consum@@ 169
measure 169
including 169
cover 169
istic 169
chan@@ 169
tor@@ 169
Se@@ 168
safe 168
0-@@ 168
row 168
studies 168
far@@ 168
kill 168
sch@@ 168
sit 168
supp@@ 167
11 167
international 167
De@@ 167
insi@@ 167
forest 167
bodies 167
standing 167
flu@@ 167
ral 166
minds 166
Ha@@ 166
training 166
listen 166
showing 166
process@@ 166
plac@@ 166
lies 166
oms 166
traditional 166
plant 166
individuals 165
month 165
Sp@@ 165
meant 165
ce@@ 165
ert 165
lower 165
extraordinary 165
walking 165
older 165
West 165
success 165
Pro@@ 165
ror 164
trees 164
Nor@@ 164
sou@@ 164
conver@@ 164
spread 164
fight 164
models 164
but@@ 163
oh 163
star@@ 163
Another 163
general 163
totally 163
wind 163
self 163
follow 163
clin@@ 163
add 162
educ@@ 162
appro@@ 162
service 162
crisis 162
vie@@ 162
contro@@ 162
tro@@ 162
gri@@ 162
okay 162
une 162
doctors 162
stay 161
arm 161
role 161
reg@@ 161
perspective 161
ump 161
ace 161
ense 161
complicated 161
200 161
worse 161
expect 161
bom@@ 161
goal 161
pp@@ 160
cultural 160
conversation 160
eventually 160
ll 160
song 160
screen 160
essentially 160
mist@@ 160
price 160
objects 160
massive 160
ited 159
av@@ 159
thes@@ 159
ba@@ 159
collabor@@ 159
foot@@ 159
Ne@@ 159
18@@ 159
photograph@@ 159
ide 158
ick 158
loo@@ 158
Today 158
head@@ 158
movie 158
sun 158
response 158
ok@@ 158
village 158
favorite 157
ek 157
high@@ 157
ables 157
electricity 157
continu@@ 157
ological 157
Ste@@ 157
od@@ 157
North 157
mot@@ 156
mer 156
Su@@ 156
allows 156
killed 156
So@@ 156
test@@ 156
town 156
tool 156
further 156
rise 156
Even 156
sec@@ 156
wed 156
positive 156
elling 155
Most 155
ners 155
explor@@ 155
successful 155
serious 155
hal@@ 155
ecting 155
Ro@@ 155
emplo@@ 155
suddenly 155
posed 155
Which 155
police 155
Bri@@ 155
unch 155
En@@ 155
dream 155
moral 155
effective 154
func@@ 154
thousand 154
reading 154
ered 154
choose 154
pick 154
she@@ 154
o-@@ 154
shot 154
usually 154
cases 154
L 154
organization 154
foot 154
ried 154
series 153
ards 153
context 153
exist 153
code 153
tur@@ 153
upon 153
pat@@ 153
respon@@ 153
ani@@ 153
sig@@ 153
ost 153
uments 153
K 153
anywhere 153
arti@@ 153
wide 153
ances 153
Ab@@ 152
machines 152
bal@@ 152
bacteria 152
tree 152
Christ@@ 152
connect 152
econom@@ 152
cir@@ 152
crazy 152
increase 152
Do@@ 152
doctor 152
fundamental 152
ow@@ 152
wife 151
buildings 151
combin@@ 151
don@@ 151
Americans 151
thers 151
cles 151
end@@ 151
site 151
orts 151
aps 151
protect 151
Per@@ 151
impossible 151
stars 151
dance 151
Who 151
ide@@ 151
aw@@ 151
cele@@ 150
tar@@ 150
range 150
consider 150
dge 150
supposed 150
income 150
od 150
tex@@ 150
sam@@ 150
not@@ 150
talks 150
faces 150
sug@@ 150
revolution 150
allowed 150
neurons 150
cla@@ 150
region 149
please 149
ane 149
boy 149
ger@@ 149
kes 149
pol@@ 149
engineering 149
search 149
belie@@ 149
David 148
assi@@ 148
500 148
rights 148
vir@@ 148
above 148
shown 148
TED@@ 148
eption 148
kept 148
one-@@ 148
truly 148
hr@@ 148
imm@@ 148
forming 148
alive 148
fu@@ 147
calcul@@ 147
Mon@@ 147
hop@@ 147
somehow 147
Me@@ 147
gen 147
dat@@ 147
sustainable 147
Are 147
architecture 147
ust 147
points 147
treatment 147
peace 147
hot 147
grew 147
demon@@ 147
robots 147
physics 147
sleep 147
date 146
fire 146
larger 146
ur 146
page 146
swe@@ 146
orig@@ 146
watching 146
expensive 146
ese 146
record 146
himself 146
written 145
waste 145
ass 145
ed@@ 145
East 145
med 145
fic@@ 145
nal 145
recognize 145
to-@@ 145
din@@ 145
reflec@@ 145
sting 145
For@@ 144
bunch 144
indeed 144
products 144
critical 144
kers 144
Co@@ 144
driving 144
smaller 144
somewhere 144
men@@ 144
ming 144
pleas@@ 144
beings 144
amp@@ 144
gest 144
four@@ 144
eting 144
imag@@ 144
skin 144
alism 143
viol@@ 143
Par@@ 143
ired 143
skills 143
activ@@ 143
pping 143
vely 143
lec@@ 142
weight 142
City 142
down@@ 142
feed 142
caus@@ 142
soci@@ 142
bing 142
ligh@@ 142
exper@@ 142
Je@@ 141
Ex@@ 141
version 141
suff@@ 141
TV 141
non@@ 141
Bo@@ 141
loved 141
cal@@ 141
tains 141
hospital 141
smo@@ 140
wait 140
funny 140
mal 140
was@@ 140
sing@@ 140
wards 140
Di@@ 140
tre@@ 140
unded 140
que 140
healthy 140
bot@@ 139
faster 139
specific 139
ole 139
families 139
log@@ 139
chemical 139
ier 139
wonder 139
ologists 139
stic@@ 139
famous 139
He@@ 139
treat 139
chi@@ 139
three-@@ 139
career 139
exist@@ 139
advan@@ 139
seconds 139
London 139
performance 138
weren 138
capit@@ 138
provide 138
decade 138
production 138
virus 138
hom@@ 138
website 138
initi@@ 138
clu@@ 138
Those 137
throughout 137
remarkable 137
governments 137
trust 137
biology 137
policy 137
fru@@ 137
intelligence 137
human@@ 137
Any@@ 137
diversity 137
college 137
dies 137
sky 137
eri@@ 137
gas 137
ought 136
gic 136
inclu@@ 136
progress 136
Mars 136
expla@@ 136
pain 136
touch 136
Like 136
aware 136
P 136
ah 136
practice 136
diseases 136
near 136
win 136
thro@@ 136
complete 136
becoming 136
-year-old 136
cru@@ 136
edi@@ 136
lau@@ 136
greater 136
actions 136
ized 135
solutions 135
mark@@ 135
18 135
From 135
ye@@ 135
Bro@@ 135
matic 135
magic 135
visual 135
mm@@ 135
icial 135
cros@@ 135
paid 134
struc@@ 134
except 134
travel 134
198@@ 134
actual 134
terrible 134
conditions 134
institutions 134
costs 134
dangerous 134
John 134
African 134
thetic 133
concept 133
ight 133
ops 133
hei@@ 133
artic@@ 133
levels 133
ya 133
ial 133
legs 133
press 132
ion@@ 132
clo@@ 132
sequence 132
asp@@ 132
listening 132
web 132
yeah 132
unique 132
familiar 132
sum@@ 132
ir 132
tun@@ 132
ulate 131
ulation 131
designers 131
thern 131
f-@@ 131
sun@@ 131
sell 131
whose 131
clearly 131
acks 131
rooms 131
greatest 131
deli@@ 131
draw 131
ough 131
gh 131
path 130
military 130
ams 130
subject 130
final 130
hing 130
yle 130
t-@@ 130
ending 130
wal@@ 130
direction 130
resear@@ 130
terror@@ 130
autom@@ 129
ahead 129
HIV 129
agree 129
function 129
U.@@ 129
a-@@ 129
fre@@ 129
possibly 129
various 129
lon@@ 129
Your 129
recogni@@ 129
repor@@ 129
hear@@ 129
ey@@ 129
verse 129
patterns 129
answers 129
forth 129
gers 129
current 129
ley 129
decades 129
X@@ 129
floor 129
eding 129
drop 129
land@@ 128
part@@ 128
beauty 128
fig@@ 128
accep@@ 128
well-@@ 128
Mc@@ 128
sl@@ 128
ta 128
quar@@ 128
conflict 128
pass@@ 128
ra 128
H 128
humanity 127
reduc@@ 127
surpris@@ 127
work@@ 127
entrepren@@ 127
financial 127
aid 127
invented 127
zen 127
ton@@ 127
entation 127
Can@@ 127
fic 127
Wi@@ 127
print 127
urban 127
therefore 127
poin@@ 127
earlier 127
wer@@ 127
obvious 127
programs 127
babies 127
math 127
kl@@ 127
sharing 127
attack 127
wel@@ 127
willing 127
Col@@ 127
meters 127
pros@@ 127
markets 126
private 126
ins@@ 126
artist 126
disappe@@ 126
walked 126
cha@@ 126
ax@@ 126
clim@@ 126
power@@ 126
oth 126
raise 126
oud 126
ute 126
bees 126
stand@@ 125
kill@@ 125
reduce 125
improve 125
alist 125
publi@@ 125
sat 125
extra@@ 125
anymore 125
ape 125
ef@@ 125
Imagine 125
ls 125
reach@@ 125
religion 125
content 125
War 125
molec@@ 125
Ber@@ 124
passi@@ 124
travel@@ 124
net 124
mit@@ 124
cent@@ 124
Com@@ 124
grade 124
bridge 124
wonder@@ 124
adap@@ 124
stre@@ 124
played 124
excited 124
ignor@@ 124
Go@@ 124
oods 124
fine 124
emerg@@ 124
eness 124
helped 124
Musli@@ 124
immediately 123
fri@@ 123
Some@@ 123
fuel 123
ering 123
emotional 123
descri@@ 123
waiting 123
genetic 123
cold 123
event 123
fantastic 123
passion 123
tis@@ 123
ession 123
motiv@@ 123
Ri@@ 123
teaching 123
cou@@ 123
swi@@ 123
ate@@ 123
atory 123
comput@@ 123
strug@@ 123
shar@@ 123
less@@ 123
behavi@@ 123
conven@@ 122
colleagues 122
swit@@ 122
ric 122
related 122
secret 122
ful@@ 122
gency 122
correc@@ 122
attra@@ 122
ong 122
70 122
Inter@@ 122
yo@@ 122
slow 122
challenges 122
square 122
serv@@ 122
ang 122
consider@@ 122
sal@@ 122
tain@@ 122
connection 122
divi@@ 122
tives 122
voc@@ 122
stron@@ 121
particip@@ 121
dependent 121
enormous 121
bat@@ 121
liber@@ 121
pull 121
societies 121
wri@@ 121
tom@@ 121
Instead 121
acting 121
ble@@ 121
phones 121
speech 120
decisions 120
cut@@ 120
fli@@ 120
race 120
em 120
commit@@ 120
surro@@ 120
stick 120
ening 120
pair 120
hel@@ 120
following 120
nu@@ 120
essed 120
track 120
ise 120
curi@@ 120
lar@@ 120
Na@@ 120
freedom 120
wers 120
spi@@ 120
hy@@ 119
low-@@ 119
ern 119
summer 119
gotten 119
genes 119
recent 119
radi@@ 119
encoura@@ 119
mile 119
surprising 119
ium 119
dog 119
spr@@ 119
arri@@ 119
E 119
birds 119
dents 119
responsibility 119
crimin@@ 119
values 119
plastic 119
degrees 118
dom@@ 118
mos@@ 118
ices 118
yp@@ 118
crow@@ 118
seemed 118
90 118
gres@@ 118
pra@@ 118
feels 118
University 118
train 118
radic@@ 118
ler 118
on-@@ 117
main@@ 117
politics 117
scientist 117
mani@@ 117
worst 117
infrastructure 117
dollar 117
explore 117
xes 117
apped 117
temperature 117
noticed 117
scre@@ 117
Man 117
iled 117
sign 117
tivity 117
effects 117
Tur@@ 117
ologist 117
survive 117
dest 117
dness 117
hat@@ 117
sent@@ 117
choices 116
wood 116
construc@@ 116
flying 116
ff 116
uring 116
original 116
ases 116
16 116
hu@@ 116
Qu@@ 116
lets 116
ina 116
streets 116
core 116
citizens 116
agri@@ 115
broken 115
inspired 115
ran 115
itu@@ 115
shared 115
biological 115
mostly 115
To@@ 115
zz@@ 115
hun@@ 115
ading 115
decide 115
ans@@ 115
Har@@ 115
evolved 115
Western 115
star 115
Gu@@ 115
eds 115
slightly 115
fro@@ 115
sus@@ 115
deep@@ 115
increas@@ 115
decision 114
pil@@ 114
ghts 114
mean@@ 114
Many 114
published 114
atmosphere 114
flow 114
destro@@ 114
suggest@@ 114
lling 114
ual 114
cise 114
laws 114
leg@@ 114
two-@@ 114
text 114
boys 114
ake 114
zes 114
sor@@ 114
Think 114
classi@@ 114
ution 113
emis@@ 113
television 113
environmental 113
useful 113
mom 113
Afghanistan 113
AIDS 113
emer@@ 113
ption 113
pressure 113
anyway 113
tou@@ 113
cro@@ 113
proper@@ 113
birth 113
F 113
Bu@@ 113
cen@@ 113
aged 113
services 112
edge 112
sim@@ 112
onate 112
10@@ 112
agre@@ 112
ember 112
Dr. 112
ples 112
speaking 112
opp@@ 112
lied 112
pounds 112
heat 112
Two 112
push@@ 112
His 112
missing 112
ush 112
Si@@ 112
ites 112
popular 112
understood 112
after@@ 112
forget 112
transl@@ 112
s-@@ 112
confi@@ 112
planets 112
achieve 112
central 112
ky 111
$ 111
transp@@ 111
total 111
aper 111
optim@@ 111
enced 111
ours 111
corner 111
inj@@ 111
sh 111
aking 111
instance 111
Hey 111
types 111
cher 111
cour@@ 111
daughter 111
and-@@ 111
ury 111
leadership 111
National 111
ush@@ 111
wher@@ 111
fit 111
lights 111
ny 111
helping 111
oceans 111
address 110
alization 110
200@@ 110
though@@ 110
relationships 110
tremendous 110
task 110
archit@@ 110
meeting 110
argument 110
produced 110
although 110
histor@@ 110
manufac@@ 110
dent 110
son@@ 110
Ph@@ 110
bt 110
fron@@ 110
ority 110
turning 110
liter@@ 110
hot@@ 109
nation 109
directly 109
states 109
clean 109
mobile 109
discover 109
female 109
applic@@ 109
Indian 109
exten@@ 109
aks 109
re-@@ 109
twice 109
usual 109
glass 109
pr@@ 109
bus@@ 109
tum@@ 109
causes 109
asks 109
10,000 109
quick 109
pe 109
inner 109
val@@ 109
han@@ 109
Bar@@ 109
expected 109
members 109
equal 109
fan@@ 109
calls 109
Fran@@ 109
frequ@@ 109
ells 108
capital 108
capacity 108
rain 108
audi@@ 108
tech 108
&apos;@@ 108
eating 108
window 108
ll@@ 108
stopped 108
era 108
Po@@ 108
vering 108
carry 108
dd@@ 108
oxygen 107
California 107
below 107
ressed 107
satelli@@ 107
ires 107
strange 107
complexity 107
invol@@ 107
flies 107
differences 107
corpor@@ 107
ben@@ 107
Ken@@ 107
15@@ 107
dec@@ 107
push 107
health@@ 107
slide 106
imagination 106
purpose 106
email 106
dying 106
rest@@ 106
efficient 106
long-@@ 106
conf@@ 106
vol@@ 106
sto@@ 106
communicate 106
experiences 106
ek@@ 106
reve@@ 106
charge 106
workers 106
closer 106
mamm@@ 106
ility 106
dreams 106
forces 105
farmers 105
democra@@ 105
indic@@ 105
int 105
necessarily 105
journ@@ 105
chair 105
,@@ 105
cept 105
const@@ 105
limit@@ 105
eas@@ 105
1,000 105
legal 105
introduc@@ 105
mig@@ 105
expec@@ 105
nearly 105
party 105
achie@@ 105
invest@@ 104
tit@@ 104
fund@@ 104
custom@@ 104
hydro@@ 104
institu@@ 104
load 104
Gi@@ 104
held 104
spending 104
supply 104
check 104
fication 104
lands 104
extra 104
akes 104
comfortable 104
bringing 104
fying 104
nur@@ 104
engage 104
Ge@@ 104
aur@@ 104
sour@@ 104
addi@@ 104
acts 103
figured 103
engine 103
apply 103
Bi@@ 103
form@@ 103
uns 103
ective 103
attle 103
networks 103
sens@@ 103
conv@@ 102
prepar@@ 102
gradu@@ 102
sible 102
300 102
radio 102
none 102
loss 102
worry 102
ray 102
experiments 102
eff@@ 102
fortun@@ 102
oun@@ 102
evi@@ 102
teen@@ 102
ung@@ 102
blind 102
vor@@ 102
decl@@ 102
net@@ 102
fascinating 102
ero@@ 102
justice 102
etc 102
holding 102
tent 102
ol 102
bub@@ 102
ami 102
shel@@ 102
itable 101
al-@@ 101
saving 101
necessary 101
hearing 101
Br@@ 101
religious 101
acceler@@ 101
equi@@ 101
pass 101
rit@@ 101
respond 101
highly 101
artists 101
fairly 101
contra@@ 101
pal@@ 101
fest@@ 101
rema@@ 101
Austr@@ 101
inte@@ 101
boat 101
rock 101
deb@@ 101
ana 101
terri@@ 101
join 101
trouble 101
report 101
nel 101
despite 101
conference 100
significant 100
tim@@ 100
Ju@@ 100
domin@@ 100
efully 100
brea@@ 100
compon@@ 100
bit@@ 100
bes@@ 100
creatures 100
trade 100
lim@@ 100
studying 100
dad 100
focused 100
failure 100
ancient 100
earth 100
Whi@@ 100
igh@@ 100
negative 100
condition 100
cell@@ 100
puzz@@ 100
aries 100
Iraq 100
Sta@@ 100
Au@@ 100
shift 100
valu@@ 100
experi@@ 100
cial 100
ier@@ 100
balance 100
vice 99
tes 99
easily 99
billions 99
rule 99
Russi@@ 99
bled 99
phenomenon 99
photograph 99
knowing 99
counter@@ 99
male 99
passed 99
leading 99
ually 99
degree 99
ten 99
tal 99
duc@@ 99
hole 99
Swe@@ 99
raised 99
distance 99
European 99
ries 99
appreci@@ 99
bits 99
surgery 99
An 98
Richard 98
Thanks 98
engine@@ 98
mouse 98
some@@ 98
consi@@ 98
standard 98
rying 98
park 98
moves 98
gry 98
offer 98
class@@ 98
tured 98
organizations 98
Take 98
paying 98
straight 98
vot@@ 98
aria 98
bird 98
laun@@ 98
exer@@ 98
sand 98
lying 98
conduc@@ 97
events 97
sym@@ 97
worl@@ 97
yl@@ 97
creativity 97
genome 97
enter 97
operation 97
sy@@ 97
creates 97
dre@@ 97
jec@@ 97
unk@@ 97
shares 97
landscape 97
iel@@ 97
apart 97
mes 97
Pri@@ 97
Fin@@ 97
arian 97
irs 97
identity 97
dea@@ 96
1,@@ 96
fically 96
24 96
13 96
ishing 96
finished 96
wir@@ 96
Mr. 96
ney 96
ancest@@ 96
kin@@ 96
noise 96
respect 96
surv@@ 96
unger 96
itely 96
ken 96
Have 96
meth@@ 96
meter 96
Great 96
neighb@@ 96
equality 96
para@@ 95
suit 95
1.@@ 95
responsible 95
tin@@ 95
believed 95
rais@@ 95
servation 95
Asia 95
industrial 95
contin@@ 95
in-@@ 95
197@@ 95
Japan 95
pris@@ 95
hasn 95
dimen@@ 95
distri@@ 95
hea@@ 95
nan@@ 95
alia 95
cel@@ 95
moments 95
wis@@ 95
Again 95
Ac@@ 95
ord@@ 95
oes 95
collective 95
effort 94
kil@@ 94
capable 94
atively 94
- 94
lucky 94
account 94
gest@@ 94
carto@@ 94
thin 94
vast 94
opposite 94
spaces 94
suffering 94
14 94
fur@@ 94
cum@@ 94
opportunities 94
dom 94
facts 94
ome@@ 94
resol@@ 94
stu@@ 94
shed 94
prison 94
ule 94
zero 94
accoun@@ 94
stran@@ 94
consciousness 94
mir@@ 93
wo@@ 93
quote 93
prac@@ 93
glob@@ 93
je@@ 93
ultimately 93
abilities 93
profit 93
antly 93
occur@@ 93
definition 93
evol@@ 93
aling 93
bly 93
compared 93
afraid 93
molecules 93
Actually 93
uries 93
typical 93
ears 93
traffic 93
ring 93
vement 93
structures 93
inger 93
newsp@@ 93
ree 92
easier 92
ick@@ 92
treated 92
stic 92
pet@@ 92
forever 92
visit 92
flu 92
categ@@ 92
childhood 92
thy 92
foreign 92
bud@@ 92
hidden 92
thinks 92
transi@@ 92
mountain 92
smar@@ 92
programm@@ 92
ort@@ 92
streng@@ 92
formation 92
osp@@ 92
gely 92
zo@@ 92
protein 92
previ@@ 92
vulner@@ 92
saf@@ 92
differently 92
chec@@ 92
tradi@@ 92
Facebook 92
break@@ 91
occ@@ 91
oned 91
cycle 91
ums 91
assem@@ 91
accur@@ 91
tons 91
mp@@ 91
neighborhood 91
victi@@ 91
rid 91
Over 91
glo@@ 91
gn@@ 91
Mexico 91
sem@@ 91
sold 91
yellow 91
collap@@ 91
interact 91
survi@@ 91
pit@@ 91
gle 91
fix 91
electron@@ 91
tac@@ 91
Vi@@ 91
wave 91
ref@@ 91
opened 90
announ@@ 90
Te@@ 90
possibility 90
coffee 90
interest@@ 90
sculp@@ 90
wr@@ 90
dn 90
sites 90
ous@@ 90
filled 90
eh@@ 90
suppor@@ 90
thir@@ 90
lab@@ 90
surprise 90
covered 90
bone 90
concent@@ 90
wit@@ 90
lesson 90
cording 90
nit@@ 90
ood 90
vers@@ 90
block 90
ts@@ 90
pu@@ 90
tery 90
fair 90
sequences 90
Very 90
discovery 90
helps 90
tex 89
sever@@ 89
implic@@ 89
sick 89
gene 89
basis 89
struction 89
conscious 89
harder 89
Did 89
ordin@@ 89
lad@@ 89
ze@@ 89
note 89
obser@@ 89
tissue 89
breast 89
boun@@ 89
heads 89
sexual 89
planning 89
arms 89
asses 89
stim@@ 89
On@@ 89
eleph@@ 89
law@@ 89
Middle 89
bread 89
character 89
brings 89
diag@@ 89
insects 89
proud 89
studied 89
sensi@@ 89
mothers 89
pun@@ 88
Lu@@ 88
ease 88
bought 88
throw 88
wild 88
wisdom 88
clock 88
5,000 88
cont@@ 88
tail 88
van@@ 88
count 88
qui@@ 88
Min@@ 88
year-old 88
dynamic 88
sorry 88
lin 88
agers 88
le-@@ 88
succe@@ 88
entirely 88
unfortunately 88
primar@@ 88
adults 88
sudden 87
letter 87
wealth 87
creation 87
importantly 87
section 87
desire 87
ital 87
Gr@@ 87
subst@@ 87
separ@@ 87
communication 87
atures 87
rough@@ 87
turing 87
users 87
wan@@ 87
ne 87
due 87
effici@@ 87
rain@@ 87
aker 87
begins 87
obs@@ 87
ues 87
catch 87
aming 87
puts 87
walls 87
argu@@ 87
bility 87
Sin@@ 87
extin@@ 87
ile 87
trained 87
chers 87
aly@@ 87
However 86
compar@@ 86
engineers 86
aster 86
196@@ 86
Japanese 86
flight 86
labor@@ 86
vit@@ 86
bon@@ 86
horri@@ 86
ager 86
university 86
profound 86
ference 86
vacc@@ 86
cho@@ 86
Res@@ 86
allo@@ 86
invisible 86
fashion 86
hibi@@ 86
di 86
transpar@@ 86
moun@@ 86
promise 86
benefit 86
deser@@ 86
3D 86
sector 86
buted 86
ols 86
mark 86
care@@ 86
names 86
opin@@ 86
limited 86
esterday 85
inven@@ 85
sis 85
Second 85
majority 85
fle@@ 85
intelligent 85
designer 85
background 85
art@@ 85
ght-@@ 85
contact 85
roll 85
belief 85
mov@@ 85
devices 85
vehicle 85
afford 85
Sometimes 85
meat 85
virtual 85
adly 85
stream 85
sibilities 85
atta@@ 85
bling 85
described 85
eas 85
trial 85
arch@@ 85
husband 85
predict 85
Hum@@ 85
inci@@ 85
campaign 85
soldiers 85
British 85
innov@@ 85
rein@@ 85
ored 85
prevent 85
base 85
represent 85
Ra@@ 85
ish@@ 85
waves 85
nee@@ 85
contr@@ 85
laugh@@ 85
gain 85
influence 85
caught 85
wake 85
inn@@ 85
stress 85
physic@@ 85
Ti@@ 84
apping 84
versi@@ 84
environ@@ 84
zation 84
cheap 84
plat@@ 84
Ple@@ 84
tempor@@ 84
wei@@ 84
rates 84
slowly 84
See 84
French 84
bank 84
Cor@@ 84
tural 84
strategy 84
gun 84
electrical 84
professional 84
brother 84
painting 84
Iran 84
weapons 84
circle 84
leads 83
concerned 83
hard@@ 83
moon 83
weird 83
simp@@ 83
partment 83
ama@@ 83
existence 83
notion 83
opening 83
ographic 83
ghter 83
whom 83
lie 83
tox@@ 83
alize 83
th-@@ 83
12@@ 83
shapes 83
sla@@ 83
Each 83
powered 83
hair 83
tens 83
amed 83
ant@@ 83
mix@@ 83
ural 83
factory 83
distribution 83
ret@@ 83
homes 83
communic@@ 83
gy@@ 83
convinc@@ 83
dimensional 83
fal@@ 83
fill 83
explo@@ 83
return 83
ization 83
ition 83
vor 83
dest@@ 83
pper 82
fres@@ 82
soil 82
Bill 82
short@@ 82
grown 82
shouldn 82
gon@@ 82
deeply 82
urt 82
losing 82
heav@@ 82
competition 82
essi@@ 82
dows 82
construction 82
sw@@ 82
mage 82
Mal@@ 82
cin@@ 82
lex@@ 82
magazine 82
photos 82
aded 82
Web 82
failed 82
symbo@@ 82
everyday 82
oul@@ 82
govern@@ 82
preser@@ 82
sac@@ 82
physici@@ 82
ft@@ 82
fix@@ 82
simul@@ 82
replic@@ 82
cognitive 82
transform 82
blin@@ 82
fold 82
More 82
medic@@ 82
practic@@ 82
ford 82
dol@@ 82
priv@@ 82
repe@@ 82
Dan@@ 82
warming 81
former 81
island 81
MIT 81
poor@@ 81
pathy 81
corruption 81
na 81
leader 81
intellec@@ 81
00 81
Sa@@ 81
transpor@@ 81
spre@@ 81
Big 81
nutri@@ 81
rou@@ 81
vity 81
marri@@ 81
esti@@ 81
businesses 81
matters 81
civil 81
giant 81
constantly 81
unk 81
adver@@ 81
titude 81
shif@@ 81
wearing 81
leaving 81
threat 81
bir@@ 81
world@@ 81
anthrop@@ 81
invited 81
shi@@ 81
signal 81
ination 81
val 81
Charles 81
soli@@ 81
interpre@@ 81
jud@@ 81
K. 81
museum 81
algorith@@ 81
depression 81
classroom 81
pengu@@ 81
ade 80
President 80
rural 80
affect 80
alternative 80
resour@@ 80
duce 80
generate 80
assum@@ 80
appar@@ 80
embra@@ 80
umin@@ 80
mel@@ 80
weather 80
reas@@ 80
brilliant 80
atives 80
Everything 80
river 80
ada 80
neuro@@ 80
gene@@ 80
gentle@@ 80
Mi@@ 80
stood 80
Would 80
photo 80
England 80
languages 80
emo@@ 80
gol@@ 80
milli@@ 80
adult 80
cis@@ 80
San 80
compli@@ 80
by@@ 80
describe 80
manage 80
Bas@@ 80
pay@@ 80
ods 80
inning 80
pap@@ 80
narra@@ 80
enting 79
brate 79
fossi@@ 79
scen@@ 79
perfec@@ 79
de-@@ 79
tests 79
lack 79
seriously 79
desig@@ 79
stuck 79
argue 79
emotions 79
iling 79
particles 79
hate 79
scene 79
effec@@ 79
fighting 79
beat 79
electric 79
Good 79
lifetime 79
Once 79
stem 79
neuros@@ 79
sign@@ 79
estim@@ 79
character@@ 79
Arab@@ 79
100,000 79
keeping 79
testing 79
peri@@ 79
steps 79
survival 79
trilli@@ 79
round 79
sume 79
hes 79
enjoy 79
Ger@@ 79
graph 79
principle 79
adop@@ 79
therwise 79
honest 79
ron@@ 79
electro@@ 79
increasingly 79
mut@@ 79
gli@@ 79
civilization 79
extreme 79
geon 79
coral 79
Lo@@ 78
chain 78
stands 78
acqu@@ 78
politici@@ 78
investment 78
separate 78
tough 78
closed 78
aled 78
17@@ 78
feedback 78
fing@@ 78
-up 78
alle@@ 78
gather@@ 78
paint 78
experim@@ 78
define 78
explan@@ 78
17 78
Everybody 78
principles 78
Life 78
spon@@ 78
random 78
alls 78
importance 78
whenever 78
een 78
epidem@@ 78
statistics 78
enem@@ 78
married 78
bers 78
accident 78
norm@@ 78
robo@@ 78
civi@@ 78
galaxies 78
popul@@ 78
mathema@@ 78
urch 78
organized 78
2,000 78
advantage 78
faith 78
flag 78
player 78
micros@@ 78
mathematics 78
partner 77
facing 77
benefits 77
bia 77
fundament@@ 77
develop@@ 77
dit 77
hell 77
commercial 77
operate 77
Germany 77
compare 77
scri@@ 77
operating 77
pment 77
35 77
copy 77
tem@@ 77
21@@ 77
spoke 77
ography 77
therapy 77
resist@@ 77
Michael 77
45 77
liked 77
associated 77
mation 77
chemistry 77
gar 77
sister 77
alists 77
demand 77
saved 77
houses 77
labor 77
ential 77
hypo@@ 77
open@@ 77
rup@@ 77
forced 77
hic 77
Sha@@ 77
vac@@ 77
equivalent 77
400 77
disco@@ 77
appropri@@ 77
ste 77
osity 77
xi@@ 77
Anderson 76
quest@@ 76
ress 76
rapi@@ 76
reci@@ 76
ckets 76
quantum 76
sequ@@ 76
encing 76
messa@@ 76
Pal@@ 76
monit@@ 76
DP 76
arts 76
ain 76
continent 76
motor 76
bus 76
kit@@ 76
illness 76
deter@@ 76
investig@@ 76
cer 76
property 76
wil@@ 76
scan@@ 76
sle@@ 76
symmet@@ 76
driven 76
exists 76
deliver 76
rational 76
ery 76
crime 76
ung 76
appear 76
Could 76
fs 76
interaction 76
150 76
calling 76
satis@@ 76
Go 76
motion 76
Sy@@ 76
determin@@ 76
pot@@ 76
underneath 76
new@@ 76
plane 75
Washington 75
mentioned 75
ve-@@ 75
situ@@ 75
dealing 75
ordinary 75
colors 75
Ta@@ 75
concep@@ 75
letters 75
acked 75
real@@ 75
friend@@ 75
chemicals 75
nerv@@ 75
chem@@ 75
Audience 75
poetry 75
poem 75
stone 75
infin@@ 75
shop 75
card 75
tivi@@ 75
driver 75
open-@@ 75
Nat@@ 75
consumption 75
economics 75
olds 75
Ol@@ 75
Brazil 75
pre-@@ 75
movies 75
bright 75
Cam@@ 75
ear 75
remote 75
relevant 75
George 75
kilometers 75
reaction 75
Q@@ 75
dy@@ 75
metaphor 75
keys 75
refu@@ 74
followed 74
tomorrow 74
exact 74
managed 74
airplane 74
ware 74
hopefully 74
bar 74
volunte@@ 74
currently 74
forests 74
spirit 74
gests 74
circu@@ 74
graduate 74
tations 74
increasing 74
ham@@ 74
spot 74
reali@@ 74
instr@@ 74
controlled 74
contribu@@ 74
ulous 74
eth 74
producing 74
posi@@ 74
hin@@ 74
ouse 74
pers 74
reser@@ 74
fellow 74
photograp@@ 74
vote 74
ject 74
proce@@ 74
avoid 74
unding 74
ships 74
shark 74
brand 73
fell 73
eur@@ 73
ussion 73
philosoph@@ 73
sear@@ 73
liz@@ 73
Wat@@ 73
dinner 73
anti-@@ 73
sand@@ 73
Israel 73
utes 73
gap 73
Women 73
thri@@ 73
bran@@ 73
west 73
fields 73
ison 73
ured 73
gate 73
graph@@ 73
tered 73
galax@@ 73
pac@@ 73
sad 73
berg 73
fortunately 73
happ@@ 73
osis 73
amon@@ 72
minist@@ 72
agen@@ 72
evolution@@ 72
inal 72
iness 72
ophi@@ 72
resp@@ 72
visu@@ 72
eping 72
get@@ 72
eins 72
ingu@@ 72
prototyp@@ 72
contri@@ 72
James 72
revol@@ 72
ason 72
hosp@@ 72
Ros@@ 72
rhyth@@ 72
ems 72
restaurant 71
kid@@ 71
absolute 71
instrument 71
Paul 71
organis@@ 71
warm 71
phot@@ 71
depres@@ 71
universal 71
eps 71
technolog@@ 71
essenti@@ 71
bel 71
er-@@ 71
fab@@ 71
Last 71
lit 71
magne@@ 71
nose 71
eline 71
vide@@ 71
Vo@@ 71
mid@@ 71
leg 71
ident 71
ores 70
sustain@@ 70
sav@@ 70
ind 70
intro@@ 70
nar@@ 70
ves@@ 70
theater 70
plus 70
acking 70
enni@@ 70
vest@@ 70
hou@@ 70
modi@@ 70
joy 70
path@@ 70
unds 70
astron@@ 70
nov@@ 70
Einstein 70
bles 70
recy@@ 70
symp@@ 70
Afri@@ 70
cans 70
ik@@ 70
lt 70
ham 70
School 70
diagn@@ 70
fem@@ 70
port 69
fore 69
ug@@ 69
fun@@ 69
ross 69
intui@@ 69
spiri@@ 69
aches 69
vention 69
member 69
abstra@@ 69
intervie@@ 69
195@@ 69
regul@@ 69
toi@@ 69
mur@@ 69
coura@@ 69
Pe@@ 69
Sun 69
YouTube 69
versus 68
aptop 68
agement 68
Ke@@ 68
ond 68
tili@@ 68
&amp; 68
Atlan@@ 68
kno@@ 68
pack@@ 68
privi@@ 68
ace@@ 68
cent 68
tory 68
ano 68
Los 68
fail@@ 68
arg@@ 68
Lin@@ 68
ge-@@ 68
Robert 68
aten 68
ap 68
abli@@ 68
mas 68
Uni@@ 68
sin@@ 67
Paci@@ 67
dur@@ 67
Times 67
stration 67
Steve 67
farm 67
tan 67
chen 67
feel@@ 67
sex@@ 67
ument@@ 67
N 67
let@@ 67
Mor@@ 67
Fi@@ 67
Jo@@ 67
ild 67
grap@@ 67
rin@@ 67
zone 67
hur@@ 67
ee@@ 67
designs 66
station 66
influ@@ 66
CO2 66
Coun@@ 66
iting 66
ags 66
oot 66
As@@ 66
geni@@ 66
Harvard 66
sul@@ 66
iet 66
Ki@@ 66
oh@@ 66
Mil@@ 66
propor@@ 66
Ad@@ 66
install@@ 66
Islam@@ 66
Bra@@ 66
essor 66
2007 66
C. 66
gement 65
ook 65
studi@@ 65
-S@@ 65
ov@@ 65
hi 65
xim@@ 65
gan 65
ater 65
lob@@ 65
mil@@ 65
ameras 65
tually 65
icken 65
spo@@ 65
ern@@ 65
ail@@ 65
2008 65
amoun@@ 64
post@@ 64
buil@@ 64
fort 64
00@@ 64
nam@@ 64
aring 64
tran@@ 64
iden@@ 64
adem@@ 64
II 64
dam@@ 64
ca 64
shap@@ 64
ange 64
az@@ 64
spac@@ 64
secre@@ 64
atom@@ 64
osystem 64
Twitter 64
Nigeria 63
haps 63
Science 63
all-@@ 63
Dis@@ 63
Center 63
Wh@@ 63
roman@@ 63
Chicago 63
dian 63
unt@@ 63
bab@@ 63
life@@ 63
fla@@ 63
add@@ 62
W 62
ann@@ 62
ug 62
Man@@ 62
Or@@ 62
quanti@@ 62
osed 62
gender 62
vehic@@ 62
inspi@@ 62
GP@@ 62
chnolog@@ 62
therap@@ 62
jects 62
tiv@@ 62
free@@ 62
stro@@ 62
quali@@ 62
Adam 62
op 62
visible 61
ategi@@ 61
99 61
Wor@@ 61
2000 61
arily 61
via 61
ony@@ 61
Mat@@ 61
ull 61
innovative 61
anks 61
ail 61
2010 61
industri@@ 61
deci@@ 61
Rem@@ 61
chron@@ 61
potenti@@ 61
Al 60
Char@@ 60
Thomas 60
El@@ 60
alog@@ 60
D. 60
impan@@ 60
imin@@ 60
Hu@@ 60
Amazon 60
spir@@ 60
Ben@@ 60
lled 60
Ob@@ 60
ai 60
25@@ 60
aci@@ 60
fall@@ 60
spar@@ 60
21 60
acci@@ 60
Sar@@ 60
Fre@@ 60
Scot@@ 60
Dem@@ 59
len@@ 59
Paris 59
tori@@ 59
promis@@ 59
ished 59
thei@@ 59
Every@@ 59
ough@@ 59
ha 59
err@@ 59
neighbor@@ 59
bo 59
alt 59
foc@@ 59
Islam 59
aser 59
charac@@ 59
Global 59
treat@@ 59
ama 58
pedi@@ 58
Da@@ 58
typic@@ 58
tt@@ 58
thin@@ 58
Sou@@ 58
Mu@@ 58
lear@@ 58
x-@@ 58
flex@@ 58
los@@ 58
natur@@ 58
forma@@ 58
Jos@@ 58
nost@@ 58
plom@@ 58
ken@@ 58
blu@@ 58
gress 58
success@@ 57
bin@@ 57
Cl@@ 57
ello 57
usi@@ 57
rank@@ 57
drin@@ 57
perman@@ 57
Wa@@ 57
bed@@ 57
tast@@ 57
ty@@ 57
Am@@ 57
ologi@@ 57
600 57
iat@@ 57
tries 57
Wal@@ 57
bat 57
Gra@@ 57
Bot@@ 57
v 57
ema@@ 56
partic@@ 56
Wow 56
John@@ 56
ine@@ 56
biolog@@ 56
ih@@ 56
Comp@@ 56
auton@@ 56
bet 56
Cent@@ 56
trait 56
anal@@ 56
cam@@ 56
van 56
Boston 56
iti 55
ok 55
CE@@ 55
num@@ 55
ogra@@ 55
exter@@ 55
ac 55
secon@@ 55
indi@@ 55
drew 55
mysteri@@ 55
Angeles 55
Satur@@ 55
J 55
essen@@ 55
zer@@ 55
Francisco 55
Pakistan 55
rob@@ 55
ank 55
ka 55
l-@@ 55
Street 55
wise 55
mathemati@@ 55
sum 55
ister 55
unt 55
Dan 55
cool@@ 55
eter 55
Obama 55
app 54
Institute 54
illi@@ 54
Mich@@ 54
ulti@@ 54
ument 54
ression 54
hyper@@ 54
Her@@ 54
hen 54
stru@@ 54
Valley 54
band 54
put@@ 54
Bl@@ 54
Sur@@ 54
year-@@ 54
Jer@@ 54
ymp@@ 54
ore@@ 54
competi@@ 54
conflic@@ 54
fascin@@ 54
rief 54
statist@@ 54
wes@@ 54
Ser@@ 54
Bel@@ 54
Rom@@ 54
Den@@ 54
oll@@ 54
passen@@ 54
pose 53
ens@@ 53
atest 53
trau@@ 53
comple@@ 53
bacter@@ 53
Num@@ 53
atten@@ 53
ing-@@ 53
Don@@ 53
ple@@ 53
Stu@@ 53
falls 53
Des@@ 53
ene 53
eing 53
Also 53
alth 53
glam@@ 53
Is@@ 53
chall@@ 53
che 53
trum 53
BG 53
wid@@ 52
V 52
uss 52
oss 52
gos 52
usive 52
favor@@ 52
Stan@@ 52
gin 52
rep@@ 52
gang 52
Sud@@ 52
organiz@@ 52
Cal@@ 52
toler@@ 52
uri@@ 52
signific@@ 52
2009 52
iPhone 52
wever 51
enga@@ 51
mod@@ 51
ob 51
New@@ 51
Gen@@ 51
concer@@ 51
rants 51
fill@@ 51
hous@@ 51
Ho@@ 51
q@@ 51
osm@@ 51
Vir@@ 51
yn 51
ause 51
Ban@@ 51
dow 51
expon@@ 51
volu@@ 51
Gl@@ 51
nec@@ 51
vic@@ 51
philosop@@ 51
tici@@ 51
diox@@ 50
ette 50
nation@@ 50
Apple 50
gan@@ 50
Ah 50
Ver@@ 50
Sau@@ 50
Gol@@ 50
Sol@@ 50
Sk@@ 50
Peter 50
Willi@@ 50
Juli@@ 50
dent@@ 50
sage 50
elt 50
illegal 50
dynam@@ 50
certain@@ 50
Bank 50
tting 50
sion@@ 50
gyp@@ 50
Sim@@ 50
etry 50
0 49
undation 49
hang 49
ett@@ 49
Tra@@ 49
Bur@@ 49
Wil@@ 49
75 49
esses 49
nei@@ 49
expl@@ 49
16@@ 49
Tal@@ 49
rie@@ 49
ollywood 49
mon 49
ade@@ 49
gery 49
September 48
citi@@ 48
vin@@ 48
exam@@ 48
NASA 48
any@@ 48
enz@@ 48
Foundation 48
X 48
Tri@@ 48
ound 48
eller 48
ghtly 48
oxy@@ 48
con 48
ould 48
phenomen@@ 48
Ven@@ 48
ald 48
Darwin 48
lex 48
ible 48
Phili@@ 48
mes@@ 48
diffic@@ 48
weap@@ 48
Dar@@ 48
verb@@ 48
Dec@@ 47
olog@@ 47
typ@@ 47
gent 47
ere 47
curr@@ 47
Pla@@ 47
gin@@ 47
ica 47
14@@ 47
Korea 47
Bal@@ 47
Indi@@ 47
abor@@ 47
Wikipedia 47
cot@@ 47
ena 47
sti@@ 47
tom 47
gst 47
osphere 47
Ant@@ 47
Del@@ 47
fel@@ 47
legi@@ 46
US 46
susta@@ 46
Mus@@ 46
dum@@ 46
Microsoft 46
U 46
Por@@ 46
pati@@ 46
com 46
ami@@ 46
Bei@@ 46
ou 46
zar@@ 46
lat@@ 46
gust 46
Budd@@ 46
Bush 46
ament 46
geri@@ 46
bert 46
Du@@ 46
Hom@@ 46
commun@@ 46
hit@@ 46
Bab@@ 46
Long 46
rot@@ 46
wand@@ 46
Ever@@ 46
script 46
Fe@@ 46
k-@@ 46
rist@@ 46
colleag@@ 45
enth@@ 45
gas@@ 45
MR@@ 45
spra@@ 45
seh@@ 45
ation@@ 45
SS 45
Mer@@ 45
tz@@ 45
mous 45
vered 45
ograph@@ 45
ank@@ 45
ander 45
mess@@ 45
Hig@@ 45
osau@@ 45
rus 44
low@@ 44
rat 44
AR@@ 44
angel@@ 44
95 44
Gro@@ 44
ab 44
lung 44
Art 44
Pre@@ 44
sau@@ 44
ord 44
metho@@ 44
Park 44
probab@@ 44
fam@@ 44
Bron@@ 44
sten 44
Mis@@ 44
Nar@@ 44
ander@@ 44
Cy@@ 44
IS@@ 44
omin@@ 43
hil@@ 43
tate 43
enn@@ 43
dens@@ 43
Sti@@ 43
lege 43
cin 43
zens 43
Ox@@ 43
2005 43
Martin 43
diff@@ 43
Eric 43
associ@@ 43
Sch@@ 43
oi@@ 43
Bon@@ 43
Kar@@ 43
Ear@@ 43
Gar@@ 43
itat 43
eter@@ 43
é@@ 43
thr@@ 43
Janu@@ 42
2001 42
2004 42
Blu@@ 42
Pan@@ 42
pop@@ 42
vels 42
differ@@ 42
32 42
My@@ 42
ser 42
rier 42
read@@ 42
danger@@ 42
mun@@ 42
profession@@ 42
tho@@ 42
partici@@ 42
Eth@@ 42
amin 42
stom@@ 42
follo@@ 42
Sam@@ 42
Texas 42
ungs 42
Mark 42
anda 42
hey 41
big@@ 41
rand@@ 41
Kev@@ 41
Manhat@@ 41
Hol@@ 41
19 41
é 41
Tr@@ 41
univers@@ 41
Tu@@ 41
moder@@ 41
with@@ 41
wa 41
iop@@ 41
General 41
Spe@@ 41
Som@@ 41
scho@@ 41
osen 41
tag 41
co 41
Pat@@ 41
Der@@ 41
Ghana 40
figh@@ 40
temper@@ 40
aller@@ 40
65 40
ela 40
A. 40
Pl@@ 40
Chi@@ 40
Uganda 40
mach@@ 40
osion 40
Mas@@ 40
MS 40
Lar@@ 40
Ed@@ 40
an-@@ 40
eil 40
jour@@ 40
Lee 40
ades 40
Tit@@ 40
compassi@@ 40
utter 40
Joe 40
plast@@ 40
Smith 39
We@@ 39
hau@@ 39
cky 39
Mad@@ 39
abetes 39
anz@@ 39
Mand@@ 39
Island 39
Frank 39
rank 39
sci@@ 39
Ty@@ 39
deed 39
Museum 39
Sor@@ 39
ampus 39
architec@@ 39
RN@@ 39
nat@@ 39
sper@@ 39
atter@@ 39
m-@@ 39
ban 39
Hy@@ 39
un 39
gut 39
Lit@@ 39
Febru@@ 39
Det@@ 39
ool 39
ign 39
intu@@ 39
acker 39
gel 39
cess 39
Ali@@ 39
Cha@@ 39
sue 39
PM 39
ar-@@ 38
dex 38
immedi@@ 38
Cra@@ 38
Win@@ 38
links 38
Yor@@ 38
85 38
what@@ 38
Ben 38
gent@@ 38
Bet@@ 38
2006 38
simil@@ 38
Tor@@ 38
consci@@ 38
26 38
dor@@ 38
fe 38
tis 38
Sal@@ 38
Mol@@ 38
uns@@ 38
neur@@ 38
la 38
gig@@ 38
yra@@ 38
eck 37
bili@@ 37
Gal@@ 37
800 37
n-@@ 37
Asi@@ 37
Ru@@ 37
stly 37
Rob@@ 37
dren 37
yn@@ 37
lik@@ 37
sei@@ 37
decis@@ 37
arly 37
ularly 37
Am 37
ala 37
lam@@ 37
demo@@ 37
vent 37
48 37
san@@ 37
moment@@ 37
will@@ 37
au 37
wander@@ 37
inging 37
Professor 37
virtu@@ 37
2011 37
Dur@@ 36
Flori@@ 36
dam 36
aver@@ 36
bile 36
til 36
condi@@ 36
Bre@@ 36
alien 36
Medi@@ 36
Revolution 36
fing 36
ester 36
Red@@ 36
Tom 36
anc@@ 36
Sel@@ 36
terna@@ 36
civiliz@@ 36
nee 36
Em@@ 36
Air@@ 35
nut@@ 35
sel 35
dow@@ 35
help@@ 35
physi@@ 35
Hel@@ 35
Y 35
ometer 35
nific@@ 35
Design 35
amm@@ 35
mote 35
sation 35
Star@@ 35
SA 35
anim@@ 35
vel 35
amer@@ 35
vern@@ 35
Ni@@ 35
Tom@@ 35
osystem@@ 35
Sing@@ 35
Pra@@ 35
listen@@ 35
dau@@ 35
Isra@@ 35
Republi@@ 34
finan@@ 34
zin@@ 34
ote@@ 34
utions 34
ames 34
s. 34
Kor@@ 34
got@@ 34
ros@@ 34
abili@@ 33
It@@ 33
Sen@@ 33
sen 33
ich@@ 33
quot@@ 33
Nan@@ 33
heal@@ 33
Mos@@ 33
hier@@ 33
seem@@ 33
individu@@ 33
Super@@ 33
benef@@ 33
ograp@@ 33
hren@@ 33
ete 33
Hon@@ 33
perf@@ 33
soldi@@ 33
trou@@ 33
Sci@@ 33
Fa@@ 33
Sil@@ 33
War@@ 33
Fel@@ 33
sist@@ 33
iel 33
carb@@ 32
clear@@ 32
gal 32
fr@@ 32
pas@@ 32
astrop@@ 32
esp@@ 32
rely 32
mol@@ 32
challeng@@ 32
cris@@ 32
Wol@@ 32
wart 32
minister 32
dens 32
hat 31
vil@@ 31
kel@@ 31
tioned 31
Jon@@ 31
ech 31
neu@@ 31
knowle@@ 31
bis@@ 31
Was 31
raft 31
hood 31
abo@@ 31
Op@@ 31
Span@@ 31
rei@@ 31
run@@ 30
peti@@ 30
gie 30
abet@@ 30
ele@@ 30
Poli@@ 30
lli@@ 30
Che@@ 30
cker 30
Kat@@ 30
Organ@@ 30
Pen@@ 30
Hal@@ 30
teach@@ 30
Video 30
stopp@@ 30
ox@@ 30
tig@@ 30
The@@ 30
unter@@ 30
otyp@@ 30
dings 30
alk 30
bedro@@ 30
Str@@ 30
bin 30
High 30
Pa@@ 30
” 30
Isl@@ 29
zy 29
og 29
are@@ 29
Secon@@ 29
dig 29
zi@@ 29
Pol@@ 29
asi@@ 29
Ja@@ 29
ich 29
wea@@ 29
immer@@ 29
Fort@@ 29
ution@@ 29
les@@ 29
commer@@ 29
fallen 29
Ul@@ 29
Ele@@ 29
Tre@@ 29
ys@@ 29
tty 29
Afgh@@ 28
senti@@ 28
there@@ 28
Ira@@ 28
erg@@ 28
Q 28
Kon@@ 28
Port@@ 28
fair@@ 28
West@@ 28
ousness 28
Dra@@ 28
en-@@ 28
them@@ 28
Phil@@ 28
Es@@ 28
kes@@ 28
denly 28
wee@@ 28
cher@@ 28
eful 28
tz 28
A-@@ 28
unity 28
ter-@@ 28
“ 28
Off@@ 27
abel 27
Ter@@ 27
Mel@@ 27
maga@@ 27
chil@@ 27
ilit@@ 27
steri@@ 27
ision 27
Ka@@ 27
Brazi@@ 27
distribu@@ 27
won@@ 27
earli@@ 27
relig@@ 27
Ah@@ 27
massi@@ 27
mm 27
princi@@ 27
At@@ 27
urity 27
US@@ 27
titu@@ 27
tent@@ 26
Mag@@ 26
Prin@@ 26
Pi@@ 26
ules 26
ball@@ 26
reck@@ 26
kn@@ 26
+ 26
ein 26
Far@@ 26
landsc@@ 26
anno@@ 26
tin 26
Tran@@ 26
Spa@@ 26
fashi@@ 26
Geor@@ 26
Im@@ 26
utely 26
dung 25
len 25
coll@@ 25
bru@@ 25
extrem@@ 25
Zer@@ 25
Ko@@ 25
V-@@ 25
western 25
du 25
Fl@@ 25
ilt 25
tage 25
Chan@@ 25
2,@@ 25
gir@@ 25
ington 25
issu@@ 25
prise 25
fabri@@ 25
Goog@@ 25
Nigeri@@ 25
ruption 25
Pu@@ 25
Ku@@ 24
NA@@ 24
ergi@@ 24
remark@@ 24
incre@@ 24
proble@@ 24
dium 24
Met@@ 24
ink@@ 24
HI@@ 24
sten@@ 24
elp@@ 24
dient 24
anten@@ 24
hus@@ 24
Kore@@ 24
Hor@@ 24
ensi@@ 24
College 24
Tun@@ 24
Tel@@ 24
Mach@@ 24
Ei@@ 24
Bec@@ 23
campa@@ 23
suc@@ 23
Physi@@ 23
nis@@ 23
ig 23
Bru@@ 23
g-@@ 23
scienti@@ 23
dden 23
Mex@@ 23
ensive 23
eig@@ 23
seri@@ 23
gros@@ 23
Ir@@ 23
S. 23
stein 23
twi@@ 23
Hin@@ 23
zine 23
ogni@@ 23
profi@@ 23
atm@@ 23
oid 23
Chr@@ 23
ossi@@ 22
mers 22
amen 22
beh@@ 22
Mah@@ 22
ouldn 22
complic@@ 22
UN@@ 22
Industri@@ 22
best@@ 22
iti@@ 22
notic@@ 22
tist@@ 22
Vol@@ 22
cau@@ 22
elle 22
Gene 22
wen@@ 22
Kin@@ 22
gel@@ 22
Fo@@ 22
sal 22
eases 22
tiger 22
Eig@@ 22
kan@@ 22
boo@@ 22
Joh@@ 21
tot@@ 21
ehr@@ 21
gens 21
Spr@@ 21
lage 21
Pau@@ 21
aus@@ 21
Frank@@ 21
nis 21
pedia 21
Ker@@ 21
ests 21
mic@@ 21
ee 21
USA 21
Ap@@ 21
Kno@@ 21
ren 21
ett 21
umen 21
tice 21
perspec@@ 21
ech@@ 21
Radi@@ 21
titles 21
materi@@ 21
ativity 21
Emp@@ 21
Pot@@ 21
depend@@ 21
uss@@ 21
App@@ 21
ester@@ 21
Norden 21
Blo@@ 20
billi@@ 20
ein@@ 20
impos@@ 20
Sat@@ 20
Mark@@ 20
System 20
Dep@@ 20
hundre@@ 20
pel 20
rich@@ 20
Publi@@ 20
lei@@ 20
fest 20
osy@@ 20
istry 20
timately 20
vid 20
Hir@@ 20
selves 20
Ther@@ 20
Sum@@ 20
Ani@@ 20
Wei@@ 20
bli@@ 20
Aut@@ 19
bil@@ 19
performan@@ 19
tra 19
nett 19
Oper@@ 19
anni@@ 19
metaph@@ 19
know@@ 19
Bus@@ 19
tish 19
metap@@ 19
kar@@ 19
ch-@@ 19
Beh@@ 19
% 19
All@@ 19
ult 19
agi@@ 19
ja 19
exu@@ 18
through@@ 18
beauti@@ 18
Son@@ 18
emotion@@ 18
bec@@ 18
zer 18
ysi@@ 18
Extre@@ 18
doll@@ 18
Z 18
toll 18
enor@@ 18
ann 18
Information 18
mati@@ 18
Ham@@ 18
Ori@@ 18
Les@@ 18
iger 18
pite 18
dun@@ 18
oce@@ 18
Mit@@ 18
Sand@@ 18
Eff@@ 18
rig 18
Ok@@ 18
well@@ 18
Pop@@ 18
traff@@ 18
relev@@ 17
Pap@@ 17
High@@ 17
milit@@ 17
eci@@ 17
beg@@ 17
infra@@ 17
tel 17
Ye@@ 17
Wo@@ 17
brilli@@ 17
Jour@@ 17
á@@ 17
olo@@ 17
Dat@@ 17
ID@@ 17
Fr@@ 17
bot 17
Americ@@ 17
nd 17
Sub@@ 17
ico 17
enn 17
eful@@ 17
Dam@@ 17
yel@@ 17
dru@@ 17
CO@@ 17
_ 17
tremend@@ 16
manu@@ 16
enge 16
Fir@@ 16
Dre@@ 16
eign 16
vili@@ 16
Arm@@ 16
valent 16
nega@@ 16
Archit@@ 16
hem@@ 16
sibility 16
spl@@ 16
ddle 16
nie 16
fut@@ 16
sit@@ 16
Mem@@ 16
beha@@ 16
event@@ 16
Vis@@ 16
sexu@@ 16
Fol@@ 16
nah 16
gem@@ 16
bare 16
maj@@ 16
kra@@ 16
compu@@ 16
atur@@ 16
acity 16
tome 16
obil@@ 15
ko@@ 15
zen@@ 15
ston 15
thous@@ 15
Wel@@ 15
Jobs 15
compan@@ 15
Bil@@ 15
year@@ 15
Jan@@ 15
rt 15
Tex@@ 15
kat@@ 15
ead 15
bet@@ 15
Kal@@ 15
los 15
ften 15
Sto@@ 15
Desig@@ 15
gether 15
Tim@@ 15
chn@@ 15
unter 15
Wit@@ 15
viron@@ 15
Mot@@ 15
integri@@ 15
insec@@ 15
Mic@@ 15
grow@@ 15
leu@@ 15
electri@@ 15
Plan@@ 15
Psych@@ 15
som@@ 15
Lon@@ 15
Sym@@ 15
í@@ 15
das 15
oppos@@ 14
aner 14
Kur@@ 14
tradition@@ 14
Hei@@ 14
energ@@ 14
ween 14
cker@@ 14
Lau@@ 14
thou@@ 14
Gri@@ 14
Tro@@ 14
soc@@ 14
-B@@ 14
stol@@ 14
dar 14
system@@ 14
Kl@@ 14
ollar 14
actly 14
Hot@@ 14
unge 14
Europa 14
Fer@@ 14
Eu@@ 14
Pak@@ 14
nt 14
wick@@ 14
aller 14
Dor@@ 14
unbe@@ 14
Arti@@ 14
zu@@ 14
internation@@ 13
del 13
two@@ 13
stice 13
beginn@@ 13
weir@@ 13
Inst@@ 13
ks@@ 13
Wis@@ 13
Imag@@ 13
esn 13
intelli@@ 13
Sig@@ 13
aut 13
Maga@@ 13
atz 13
Person@@ 13
Get@@ 13
pho@@ 13
Computer 13
Frie@@ 13
stell@@ 13
Er@@ 13
enever 13
him@@ 13
Fahr@@ 13
enheit 13
Tat@@ 13
sth@@ 13
avail@@ 13
Studi@@ 13
esz@@ 13
colle@@ 13
D-@@ 13
ails 13
Schwar@@ 13
stam@@ 13
ã@@ 13
lem 13
Planet 13
grou@@ 13
offen@@ 12
Ama@@ 12
digit@@ 12
ik 12
mmet@@ 12
wom@@ 12
Mom@@ 12
Sex 12
vices 12
TE@@ 12
Code 12
automati@@ 12
hili@@ 12
Not@@ 12
ki@@ 12
Invest@@ 12
ehow 12
S-@@ 12
train@@ 12
elli@@ 12
esse 12
Ur@@ 12
è@@ 12
oug@@ 12
busin@@ 11
ieties 11
abri@@ 11
child@@ 11
dern 11
Rich@@ 11
Fil@@ 11
Tem@@ 11
ament@@ 11
aus 11
bitten 11
derer 11
halt 11
# 11
Lei@@ 11
Fas@@ 11
Europe@@ 11
ender 11
sibly 11
ffe 11
– 11
thema@@ 11
@ 11
Da 11
anders 11
… 11
lich@@ 11
Euro@@ 11
Ton@@ 11
inner@@ 10
necess@@ 10
Von 10
Syn@@ 10
gend 10
Bit@@ 10
agne 10
Kap@@ 10
Stra@@ 10
Para@@ 10
Lang@@ 10
Wiki@@ 10
orrow 10
Gener@@ 10
Kir@@ 10
ler@@ 10
chs 10
litt@@ 10
= 10
zy@@ 10
Mission 10
Patient 10
j 10
complex@@ 10
prob@@ 10
ppe 10
Freu@@ 10
Imp@@ 10
km 10
B. 10
Dru@@ 10
Mik@@ 10
Gei@@ 10
asse 9
Ok 9
Pil@@ 9
Prot@@ 9
Wur@@ 9
inst 9
Hall@@ 9
ults 9
sch 9
Progra@@ 9
Baby 9
Gan@@ 9
Fu@@ 9
Chin@@ 9
alter 9
.B. 9
Pati@@ 9
ó@@ 9
von 9
Mut@@ 9
Milli@@ 9
itz@@ 9
trin@@ 9
trag@@ 9
Dim@@ 9
vul@@ 9
mann 9
Harv@@ 9
Rel@@ 9
Audi@@ 9
ien 9
eren 9
bald 9
Web@@ 9
lie@@ 9
fes@@ 9
Fam@@ 9
patter@@ 9
mom@@ 9
Nation 9
antum 9
aler 9
Team 9
ç@@ 9
kon@@ 8
hig@@ 8
Plan 8
ahn 8
Film 8
Russ@@ 8
eine 8
ometers 8
istan 8
Land@@ 8
zur@@ 8
ei 8
Journ@@ 8
hab 8
Evolution 8
ante 8
Philosop@@ 8
religi@@ 8
inform@@ 8
2-@@ 8
Hand@@ 8
Stand@@ 8
mmer 8
ende 8
unte@@ 8
Tradi@@ 8
Kan@@ 8
Kam@@ 8
Um 8
Rei@@ 8
cken 8
Hil@@ 8
ession@@ 8
Pos@@ 8
Zi@@ 8
ld 8
ubli@@ 8
bis 8
extre@@ 8
eck@@ 8
cient 8
vier 8
dem 8
vat@@ 8
stens 8
yond 8
enden@@ 8
apos@@ 8
econ@@ 8
Ris@@ 8
Neur@@ 8
omen 8
Zu@@ 8
Got@@ 8
feu@@ 8
ige 7
Eis@@ 7
Tum@@ 7
kel 7
fiel@@ 7
Men@@ 7
) 7
las 7
Ep@@ 7
Pres@@ 7
egal 7
Et@@ 7
Ide@@ 7
Innovation 7
000 7
span@@ 7
stab 7
Amaz@@ 7
eit 7
Mann 7
alt@@ 7
wollen 7
Ak@@ 7
Fern@@ 7
comfort@@ 7
Galax@@ 7
call@@ 7
technologi@@ 7
erst@@ 7
Bes@@ 7
ines@@ 7
ror@@ 7
Intelligen@@ 7
Kind@@ 7
aden 7
q 7
Wer@@ 7
phen@@ 7
Terror@@ 7
acter@@ 7
omp@@ 7
erz@@ 7
dership 7
agen 7
Japan@@ 7
Wir@@ 6
famili@@ 6
illion 6
ffe@@ 6
bst@@ 6
enz 6
ritanni@@ 6
Compu@@ 6
ote 6
Chem@@ 6
ith 6
mei@@ 6
Neuro@@ 6
Wind 6
slow@@ 6
Herz@@ 6
Part@@ 6
pf@@ 6
gab@@ 6
Tab@@ 6
Designer 6
schwi@@ 6
Natur@@ 6
Roll@@ 6
lag 6
iPh@@ 6
Generation 6
erie 6
Schul@@ 6
Land 6
indu@@ 6
Atom@@ 6
Ern@@ 6
sam 6
herr@@ 6
Institu@@ 6
stark 6
Din@@ 6
Test 6
stud@@ 6
fantast@@ 6
uten 6
kri@@ 6
zu 6
Plast@@ 6
Twit@@ 6
ats@@ 6
lang 6
hyth@@ 6
Mod@@ 6
Mechan@@ 6
DN@@ 6
Angel@@ 6
Stru@@ 6
Fig@@ 5
alis@@ 5
Software 5
wu@@ 5
pover@@ 5
liche 5
your@@ 5
weil 5
Relig@@ 5
funk@@ 5
strateg@@ 5
att 5
telev@@ 5
dir 5
Teen@@ 5
Fra@@ 5
lle 5
throp@@ 5
letely 5
rong 5
aber 5
cke 5
Indu@@ 5
oren 5
ó 5
Stat@@ 5
Test@@ 5
kal@@ 5
nst 5
Univers@@ 5
Licht@@ 5
eist@@ 5
wah@@ 5
zent@@ 5
atten 5
System@@ 5
ople 5
tron@@ 5
Iden@@ 5
kr@@ 5
Vision 5
Hand 5
ö@@ 5
Fren@@ 5
fas@@ 5
wen 5
ussi@@ 5
Engli@@ 5
sein 5
fak@@ 5
Defin@@ 5
Metap@@ 5
Solar@@ 5
Kol@@ 5
MI@@ 5
Stre@@ 5
hne 5
langu@@ 5
beit 5
andel 5
sie 5
kas 5
Ach@@ 5
tern 5
Rest@@ 5
í 5
opport@@ 5
Hau@@ 5
Ghan@@ 4
Technologi@@ 4
Kr@@ 4
betra@@ 4
( 4
quick@@ 4
Neu@@ 4
cess@@ 4
rom 4
Vari@@ 4
Deut@@ 4
You@@ 4
Form 4
eler@@ 4
ffen 4
dies@@ 4
absol@@ 4
rie 4
Mei@@ 4
stem@@ 4
feld 4
Hoff@@ 4
Kind 4
Fle@@ 4
trie@@ 4
fen@@ 4
Ech@@ 4
Tod 4
Organis@@ 4
unge@@ 4
Amer@@ 4
Sek@@ 4
Internet@@ 4
Californi@@ 4
Dro@@ 4
scher 4
E-@@ 4
^ 4
Koh@@ 4
Glob@@ 4
TED-@@ 4
fen 4
Proz@@ 4
Mir 4
Kraft 4
forman@@ 4
ñ@@ 4
mals 4
alley 4
gem 4
steu@@ 4
mitten 4
Flu@@ 4
Prei@@ 4
redu@@ 4
kap@@ 4
uter 4
iker 4
kt@@ 4
mend@@ 4
Rat@@ 4
Der 4
staun@@ 4
Statist@@ 4
ä@@ 4
Bli@@ 4
gend@@ 4
ges@@ 4
bau@@ 4
verst@@ 4
frei@@ 4
wie 4
‘ 4
Transp@@ 3
Ander@@ 3
ben 3
Quad@@ 3
nun 3
Million 3
Ober@@ 3
gabe 3
r. 3
Exper@@ 3
Soh@@ 3
Analy@@ 3
ku@@ 3
Nach@@ 3
industr@@ 3
mitt@@ 3
Intelli@@ 3
leist@@ 3
Sie@@ 3
mus 3
je 3
techn@@ 3
Falls 3
Haus@@ 3
has@@ 3
omas 3
piec@@ 3
auf 3
das@@ 3
stes 3
Name 3
Emo@@ 3
Fall 3
stead 3
* 3
Ner@@ 3
Gel@@ 3
acht 3
Regi@@ 3
ritte 3
Sequ@@ 3
schle@@ 3
Bau@@ 3
eum 3
sych@@ 3
lich 3
dimension@@ 3
osop@@ 3
ï@@ 3
ele 3
immer 3
tet 3
Spiel@@ 3
Kun@@ 3
degre@@ 3
AID@@ 3
Prof@@ 3
erk@@ 3
robot@@ 3
hl 3
Baum@@ 3
chst@@ 3
Individu@@ 3
einf@@ 3
Lie@@ 3
etz@@ 3
sche 3
â 3
 3
 3
Famili@@ 3
US-@@ 3
etz 3
Them@@ 3
pro 3
omen@@ 3
stung 3
Face@@ 3
det 3
fs@@ 3
utz@@ 3
ffee 3
á 3
Micha@@ 3
ognitive 3
obvi@@ 3
Tau@@ 2
Instr@@ 2
hart 2
Techni@@ 2
Micros@@ 2
ù 2
Zah@@ 2
tau@@ 2
Proble@@ 2
rum 2
wagen 2
Fisch@@ 2
mme 2
zeit@@ 2
unden@@ 2
Ug@@ 2
dass 2
Af@@ 2
Das 2
sens 2
Kunst@@ 2
Tier@@ 2
einer 2
movi@@ 2
unities 2
obs 2
chit@@ 2
Dollar 2
..@@ 2
tol@@ 2
kol@@ 2
Materi@@ 2
Metho@@ 2
iegel 2
Stim@@ 2
Fen@@ 2
Wes@@ 2
Job 2
nah@@ 2
auff@@ 2
tei@@ 2
doch 2
bs@@ 2
phys@@ 2
Kre@@ 2
Kri@@ 2
relation@@ 2
mt 2
Dinosau@@ 2
intelligen@@ 2
Smit@@ 2
heu@@ 2
verk@@ 2
Mathemati@@ 2
Ehr@@ 2
nach@@ 2
Sich@@ 2
progra@@ 2
wei 2
ings@@ 2
£ 2
normal@@ 2
Arm 2
É@@ 2
rau@@ 2
Ster@@ 2
mir 2
sat@@ 2
Diag@@ 2
kli@@ 2
orie 2
ischer 2
veh@@ 2
ollen 2
Anti@@ 2
wand 2
Es 2
zem 2
halten@@ 2
Trau@@ 2
Kra@@ 2
repr@@ 2
Gest@@ 2
ehr 2
ê@@ 2
kum@@ 2
kom@@ 2
richt@@ 2
onen 2
stelle 2
neath 2
Kil@@ 2
Therap@@ 2
Person 2
Experim@@ 2
blem 2
Aus@@ 2
fig 2
Schu@@ 2
Wash@@ 2
ć 2
leb@@ 2
è 2
aum 2
Insel 2
hin 2
tete 2
atur 2
Wald 2
Temper@@ 2
beau@@ 2
ë 2
lang@@ 2
Ein@@ 2
Problem 2
Fot@@ 2
Um@@ 2
ø@@ 2
iele 2
Labor 2
Landes 2
Arg@@ 2
.000 1
asch@@ 1
ù@@ 1
webe 1
Wik@@ 1
Frei@@ 1
lust@@ 1
Exist@@ 1
hr 1
desto 1
chni@@ 1
bele@@ 1
globale 1
lige 1
Tag 1
Geb@@ 1
eres 1
olly@@ 1
heim@@ 1
Rau@@ 1
ú@@ 1
Kamp@@ 1
utzen 1
Moment 1
Schwe@@ 1
aschen 1
gef@@ 1
geb@@ 1
YouTu@@ 1
stern 1
Tier 1
kam@@ 1
Spra@@ 1
Situation 1
diesel@@ 1
º@@ 1
Zeit@@ 1
samer 1
ös@@ 1
ische 1
für 1
iges 1
asen 1
Auto 1
Zei@@ 1
bede@@ 1
utz 1
Stro@@ 1
ò@@ 1
à@@ 1
Experiment 1
kor@@ 1
aga@@ 1
Nation@@ 1
√ 1
± 1
Nig@@ 1
iko 1
Virus 1
Best@@ 1
Gegen@@ 1
Idee 1
Region 1
scha@@ 1
inge 1
tung 1
Tie@@ 1
Haus 1
kul@@ 1
happen@@ 1
ente 1
Eben@@ 1
bein@@ 1
tun 1
Engl@@ 1
deu@@ 1
eher 1
Mehr@@ 1
errei@@ 1
liches 1
gig 1
hinter@@ 1
ör@@ 1
Kinder@@ 1
Mess@@ 1
Rede 1
lig 1
kti@@ 1
elles 1
die@@ 1
lichen 1
spru@@ 1
Mein@@ 1
Chance 1
nes 1
jen@@ 1
Brasili@@ 1
Infra@@ 1
west@@ 1
ativ@@ 1
ritt 1
leh@@ 1
Lauf@@ 1
Flag@@ 1
Kom@@ 1
stec@@ 1
Mein 1
Kampf 1
abor 1
fte 1
tik@@ 1
stad@@ 1
Du 1
Haut 1
icals 1
fft 1
aft 1
chen@@ 1
Kran@@ 1
Chic@@ 1
Schwei@@ 1
lok@@ 1
Dies@@ 1
druck 1
assen 1
wo 1
Gut 1
Rest 1
Meine 1
ppen 1
üs@@ 1
送@@ 1
你@@ 1
葱 1
essen 1
ë@@ 1
iken 1
Leu@@ 1
wus@@ 1
Schn@@ 1
Geh@@ 1
acken 1
Wet@@ 1
nen@@ 1
Religion 1
Kli@@ 1
ô@@ 1
² 1
haft 1
Version 1
zur 1
eigen@@ 1
ulp@@ 1
drin 1
lö@@ 1
haus 1
Videos 1
echt 1
noch 1
sibili@@ 1
fiz@@ 1
gs@@ 1
oder 1
sinn@@ 1
gung 1
uch 1
ande 1
Schlei@@ 1
Morgen 1
rech@@ 1
ateg@@ 1
angen@@ 1
very@@ 1
every@@ 1
ritten 1
à 1
such@@ 1
Meer 1
tier@@ 1
Satelli@@ 1
Č@@ 1
Funk@@ 1
holt 1
Sei@@ 1
tat 1
fern 1
ø 1
Nord@@ 1
immel 1
brei@@ 1
ě@@ 1
zul@@ 1
esen 1
Minute 1
Dunk@@ 1
öl@@ 1
chtung 1
hier 1
Programm@@ 1
