, 142655
. 106153
die 43351
und 40297
der 31689
ist 26058
es 25895
in 25207
das 22977
zu 22784
er@@ 21947
k@@ 21503
en 20065
den 19972
er 19581
ich 19554
wir 19370
t@@ 18046
ten 17465
te 16889
ein 16692
K@@ 16556
S@@ 16078
Sie 15947
f@@ 15944
t 15716
l@@ 15556
st@@ 15422
eine 15370
sie 15207
M@@ 14981
z@@ 14972
s@@ 14725
&quot; 14654
sch@@ 14482
en@@ 14472
b@@ 14471
von 14270
an@@ 14265
dass 14151
D@@ 13859
nicht 13853
g@@ 13846
m@@ 13362
B@@ 13140
ver@@ 12785
Und 12301
ge@@ 12083
be@@ 11942
gen 11744
F@@ 11637
g 11523
ch@@ 11405
auf 11272
mit 11253
W@@ 11205
h@@ 11184
H@@ 11140
: 10975
d@@ 10903
T@@ 10556
um 10303
ä@@ 10251
P@@ 10176
o@@ 10140
an 9858
wie 9815
Ich 9739
ti@@ 9666
r@@ 9654
n@@ 9602
L@@ 9547
sich 9423
e@@ 9199
sind 9042
s 9004
u@@ 8987
-@@ 8946
w@@ 8827
? 8680
a@@ 8642
ung 8632
für 8609
in@@ 8592
haben 8544
ein@@ 8495
e 8438
G@@ 8418
i@@ 8219
dem 8119
als 8051
einen 7778
au@@ 7706
al@@ 7610
man 7553
re@@ 7529
lich 7509
m 7485
R@@ 7481
war 7462
A@@ 7289
un@@ 7217
ge 7159
chen 7139
gen@@ 7086
Das 7074
so 7058
Sch@@ 7038
N@@ 7018
el@@ 6987
ö@@ 6834
aus 6705
cht 6704
Es 6647
ri@@ 6601
le@@ 6537
ü@@ 6522
was 6514
ar@@ 6386
des 6239
diese 6229
li@@ 6171
ent@@ 6171
im 6160
de 6107
rei@@ 6094
Wir 6034
a 5940
E@@ 5911
or@@ 5860
Ver@@ 5748
uns 5746
di@@ 5734
ei@@ 5728
es@@ 5724
p@@ 5723
wenn 5682
che 5646
ab@@ 5625
at@@ 5582
einer 5516
sp@@ 5482
ben 5341
ch 5316
am@@ 5290
zu@@ 5286
können 5257
werden 5202
über 5180
zi@@ 5135
einem 5105
Z@@ 5094
ra@@ 5017
oder 4973
ungen 4966
V@@ 4965
em@@ 4959
is@@ 4900
st 4878
hat 4867
An@@ 4845
si@@ 4830
sten 4816
aus@@ 4794
ter 4771
il@@ 4755
sen 4725
auch 4717
on@@ 4640
aber 4607
än@@ 4589
Die 4524
l 4455
et@@ 4449
kann 4431
n 4412
O@@ 4407
kl@@ 4386
ie 4374
Aber 4333
Er@@ 4291
um@@ 4284
it@@ 4209
C@@ 4202
wird 4185
J@@ 4175
as@@ 4172
sehr 4162
ig@@ 4097
nur 4094
ft 4066
ut@@ 4064
le 4055
men 4023
eren 4013
-- 3949
ern 3933
Menschen 3933
gibt 3909
– 3901
ol@@ 3875
nen 3868
der@@ 3847
St@@ 3773
sehen 3773
sein 3750
eh@@ 3746
hier 3729
om@@ 3728
mich 3728
auf@@ 3698
lie@@ 3676
zen 3645
and 3628
ur@@ 3607
gt 3599
ro@@ 3565
dann 3563
In@@ 3551
d 3534
vor 3505
k 3497
de@@ 3491
also 3463
I@@ 3457
lan@@ 3453
ot@@ 3431
je@@ 3424
Be@@ 3410
noch 3407
se 3387
sa@@ 3362
kt 3353
etwas 3299
y@@ 3263
ter@@ 3252
tr@@ 3224
wei@@ 3215
Ge@@ 3202
len 3202
ie@@ 3189
über@@ 3167
f 3166
dieser 3143
nach 3130
o 3126
tet 3116
habe 3115
ges@@ 3097
z 3091
Pro@@ 3084
her@@ 3077
äh@@ 3055
lichen 3054
ma@@ 3051
ste 3043
eu@@ 3041
mir 3036
chten 3036
te@@ 3034
ul@@ 3029
ß@@ 3020
ert 3008
ere 2968
bei 2950
1@@ 2945
us@@ 2933
tra@@ 2913
mehr 2901
cht@@ 2895
me 2892
Welt 2887
chte 2885
and@@ 2870
Wenn 2866
vor@@ 2852
liche 2852
wen@@ 2785
we@@ 2779
r 2769
alle 2768
ken 2763
ben@@ 2740
ni@@ 2740
fen 2714
den@@ 2714
lei@@ 2714
i 2692
all 2681
al 2664
j@@ 2656
gel@@ 2653
- 2632
ier@@ 2625
Ein@@ 2620
machen 2617
ne 2604
ag@@ 2599
wurde 2574
Ar@@ 2553
Sp@@ 2545
lich@@ 2533
am 2512
ber@@ 2503
eines 2497
os@@ 2478
ck@@ 2476
Ihnen 2475
durch 2465
zum 2458
ach@@ 2458
kommen 2457
ück@@ 2455
immer 2451
Gr@@ 2447
v@@ 2443
heit 2427
hei@@ 2423
ün@@ 2412
Re@@ 2396
ieren 2392
eri@@ 2353
ischen 2313
meine 2291
iert 2283
ör@@ 2283
ke 2281
gan@@ 2281
wirklich 2260
eit 2251
th@@ 2250
wer@@ 2249
ann 2239
ische 2228
vi@@ 2224
est@@ 2222
äu@@ 2219
elt 2214
for@@ 2214
dar@@ 2214
da@@ 2211
U@@ 2190
gesch@@ 2187
weil 2181
ßen 2181
wor@@ 2181
ing@@ 2180
ungs@@ 2180
op@@ 2170
Also 2164
äl@@ 2162
per@@ 2159
tun 2146
Au@@ 2141
ak@@ 2135
viel 2134
gef@@ 2130
unsere 2126
aten 2117
unter@@ 2114
ir@@ 2107
bei@@ 2105
hatte 2101
En@@ 2101
h 2083
dieses 2081
Was 2079
♫ 2076
wi@@ 2069
Er 2063
c@@ 2062
u 2060
nt 2053
b 2052
hr@@ 2052
se@@ 2033
geb@@ 2023
ah@@ 2018
ff@@ 2017
rie@@ 2014
eln 2007
sagen 2001
da 1999
Zeit 1984
ap@@ 1981
gr@@ 1970
ihre 1966
hin@@ 1964
tionen 1960
be 1958
diesem 1956
keine 1955
viele 1948
kan@@ 1936
Leute 1926
cher 1923
all@@ 1922
är@@ 1920
Ges@@ 1907
Leben 1905
ger@@ 1896
führ@@ 1889
ts@@ 1886
Vor@@ 1882
du@@ 1881
gi@@ 1880
kon@@ 1874
glei@@ 1866
ehen 1865
Te@@ 1863
wissen 1856
waren 1851
tion 1849
ation 1847
auen 1844
müssen 1837
wel@@ 1829
Dinge 1827
mit@@ 1823
Jahren 1809
ür@@ 1805
so@@ 1803
wo 1800
Kon@@ 1797
ell@@ 1789
In 1788
el 1787
inn@@ 1782
la@@ 1781
on 1779
mal 1772
gew@@ 1769
andere 1765
iel@@ 1757
inter@@ 1756
Der 1753
Zu@@ 1749
ek@@ 1747
keit 1746
diesen 1745
em 1745
stellen 1744
sagte 1737
gehen 1737
sen@@ 1735
einfach 1735
jetzt 1728
ru@@ 1721
end 1715
schen 1712
ihr 1708
bes@@ 1704
oh@@ 1703
bin 1688
zwei 1687
ob@@ 1686
off@@ 1684
zur 1682
schaft 1682
zei@@ 1680
anderen 1678
det 1678
ellen 1674
und@@ 1672
pro@@ 1671
hör@@ 1669
Al@@ 1668
men@@ 1665
geht 1657
ehr@@ 1655
unden 1647
geben 1647
gro@@ 1647
Aus@@ 1643
ens 1635
Di@@ 1631
ik@@ 1625
lo@@ 1624
elle 1623
sel@@ 1618
halten 1618
us 1616
fü@@ 1613
Or@@ 1613
finden 1609
tion@@ 1609
ße 1604
Wie 1596
füh@@ 1595
ger 1593
alles 1591
Art 1586
ale 1586
ne@@ 1583
Unter@@ 1581
nehmen 1569
ander@@ 1564
würde 1557
bis 1551
lt 1550
brau@@ 1542
stell@@ 1531
2@@ 1525
damit 1517
ar 1500
Ent@@ 1493
Jahre 1481
war@@ 1473
ze 1472
tei@@ 1471
ts 1471
denken 1458
ß 1456
du 1455
at 1453
bt 1451
hal@@ 1449
fan@@ 1443
fin@@ 1440
0@@ 1433
fra@@ 1433
x@@ 1432
under@@ 1429
pr@@ 1423
Sta@@ 1421
.@@ 1420
tz@@ 1419
dies 1415
or 1412
ob 1411
mög@@ 1409
schn@@ 1407
fol@@ 1406
su@@ 1401
dr@@ 1395
wichti@@ 1392
muss 1390
gut 1389
beg@@ 1388
selbst 1383
mei@@ 1381
sol@@ 1372
Ma@@ 1369
im@@ 1364
fahr@@ 1362
sch 1360
schon 1359
ell 1353
ess@@ 1351
best@@ 1351
Un@@ 1347
glau@@ 1343
mein 1342
Man 1342
; 1340
ität 1338
We@@ 1330
denen 1330
mer@@ 1322
isch 1309
5 1306
imm@@ 1304
vielleicht 1303
ahr@@ 1298
hi@@ 1298
dung 1295
ihnen 1289
Nun 1289
denn 1283
alen 1283
ent 1278
versu@@ 1278
zusam@@ 1276
Wis@@ 1270
he 1268
nach@@ 1267
ut 1267
ta@@ 1266
Auf@@ 1265
zt 1260
eht 1257
tro@@ 1254
lu@@ 1253
Ab@@ 1241
wieder 1238
nen@@ 1236
ist@@ 1236
Geschichte 1231
möchte 1231
br@@ 1215
ken@@ 1214
davon 1213
ur 1210
schaf@@ 1208
esen 1207
A 1201
schein@@ 1198
ler 1198
bess@@ 1192
ler@@ 1191
kommt 1190
ön@@ 1189
des@@ 1187
jem@@ 1187
For@@ 1186
ck 1186
Sa@@ 1183
ex@@ 1183
heute 1182
Sy@@ 1180
neu@@ 1179
aum 1169
leben 1168
ende 1160
her 1157
Hier 1152
halb 1150
Mit@@ 1149
weise 1146
dern 1143
Diese 1140
ec@@ 1139
Wei@@ 1138
Kinder 1138
ihn 1136
einige 1133
ganz 1133
hatten 1132
iger 1131
wollen 1130
fer@@ 1129
ner 1123
fe 1119
nis 1116
&apos; 1116
Li@@ 1116
tern 1115
ielen 1114
fl@@ 1112
woll@@ 1112
ändern 1110
dort 1108
000 1108
ffen 1106
unter 1106
lassen 1100
könnte 1098
ih@@ 1098
drei 1096
ic@@ 1095
Gen@@ 1095
Fra@@ 1094
lichkeit 1092
bringen 1090
ran@@ 1087
ten@@ 1086
entwick@@ 1085
wä@@ 1084
TED 1083
og@@ 1082
besch@@ 1080
qu@@ 1076
tre@@ 1076
sche 1071
! 1068
rit@@ 1068
größ@@ 1065
stellt 1065
Nach@@ 1063
erung 1063
macht 1060
gu@@ 1059
Fre@@ 1058
unserer 1058
genau 1057
Her@@ 1057
darüber 1055
nah@@ 1055
arbei@@ 1053
etzt 1051
paar 1050
eigen@@ 1050
Per@@ 1048
änder@@ 1048
ing 1048
na@@ 1045
nten 1045
bi@@ 1045
y 1045
seine 1044
nun 1042
zeu@@ 1041
as 1041
äch@@ 1040
Gehir@@ 1039
Th@@ 1038
ster 1038
Bil@@ 1027
sondern 1027
ha@@ 1026
Mar@@ 1025
werde 1025
wurden 1025
meiner 1023
mm@@ 1021
Um@@ 1019
tiv@@ 1019
lung 1016
Ein 1015
Jahr 1015
0 1014
gab 1011
Stu@@ 1011
it 1010
sieht 1010
Leben@@ 1010
ig 1009
neue 1008
tung 1007
is 1002
oren 1001
tatsächlich 996
Des@@ 996
bra@@ 996
entlich 996
ich@@ 993
utzen 990
Als 990
Gel@@ 989
tig 985
man@@ 985
pl@@ 984
kam 984
4@@ 982
wahr@@ 979
ien 979
unde 979
erzäh@@ 974
vom 973
wir@@ 964
Beispiel 963
bar@@ 962
Me@@ 961
gemacht 959
wus@@ 959
aut 957
igen 956
Ber@@ 954
enden 950
Ch@@ 950
3@@ 947
erte 946
ok@@ 945
ad@@ 945
zwischen 944
sogar 943
Problem 943
nat@@ 943
äd@@ 942
dan@@ 941
denke 940
doch 939
set@@ 938
utz@@ 938
Wass@@ 935
bar 934
mus@@ 933
einf@@ 932
gung 932
kte 931
chn@@ 930
lau@@ 930
wäre 929
eig@@ 927
hen 927
eil 926
schei@@ 926
mo@@ 926
ati@@ 921
hät@@ 920
irgend@@ 919
Teil 919
ja 916
öff@@ 914
durch@@ 913
ka 913
19@@ 912
Mon@@ 909
Frage 908
ürlich 908
assen 908
ung@@ 908
weiter 907
p 905
Geb@@ 902
son 901
wis@@ 898
kein 897
zeigen 896
rü@@ 895
bl@@ 895
os 894
gten 892
viel@@ 891
Tag 889
dazu 888
ern@@ 885
weiß 883
stand 878
allen 877
mp@@ 877
lin@@ 875
alt 875
mensch@@ 875
gte 873
aufen 873
sta@@ 873
to@@ 872
funktion@@ 871
are 869
gl@@ 869
age 868
iel 868
nung 868
Zei@@ 867
ach 867
würden 865
Frauen 863
8@@ 862
einmal 861
est 860
arbeiten 859
verschie@@ 858
glaube 856
Dies 855
üt@@ 854
los@@ 854
bin@@ 853
atz 853
5@@ 852
nie 852
So 852
nis@@ 850
ihren 848
Wir@@ 847
zwei@@ 847
Eine 845
näch@@ 845
kennen 844
ft@@ 843
arti@@ 843
fi@@ 842
Mo@@ 840
wohl 839
ank 838
Ih@@ 838
tur 838
ßt 836
asch@@ 835
üh@@ 835
tri@@ 833
uns@@ 833
tes 833
zah@@ 833
will 832
ble@@ 832
dig@@ 832
keiten 830
ild 829
star@@ 829
ph@@ 829
wegen 829
Ex@@ 827
v 826
War@@ 826
ohne 826
nichts 825
passiert 825
Talk 824
dafür 824
ersten 823
zurück 822
tel@@ 822
meinen 820
Über@@ 818
ber 818
ant@@ 818
Medi@@ 818
richti@@ 816
sprechen 816
gerade 815
sam@@ 814
heraus@@ 813
während 813
schaffen 813
Gesch@@ 812
zeigt 812
he@@ 811
pe@@ 810
unser 809
ho@@ 809
etwa 809
Inter@@ 807
Par@@ 803
kur@@ 802
Millionen 802
sagt 802
rä@@ 801
Rei@@ 800
ali@@ 799
ät@@ 799
hö@@ 799
Jahr@@ 798
str@@ 796
gest@@ 796
Mus@@ 796
amen 796
Arbeit 795
Subtitles 791
Transcript 791
erste 791
groß@@ 790
sei@@ 789
2 788
nte 785
ind 785
schie@@ 785
kom@@ 784
rupp@@ 783
mt 782
verstehen 780
6@@ 780
ches 779
daran 778
gra@@ 778
bedeu@@ 777
stän@@ 775
ging 774
Prozent 773
Bi@@ 773
unkt 772
Ihre 771
Regi@@ 771
Kin@@ 770
tigen 770
sy@@ 769
Fü@@ 768
Bu@@ 767
Sei@@ 767
verst@@ 767
ige 766
Nat@@ 765
jeder 764
letzten 762
pf@@ 762
Ph@@ 762
wer 761
voll@@ 761
Land 760
innen 759
re 758
vol@@ 758
sollte 756
icht 755
onen 753
sollten 752
Idee 751
Fl@@ 751
the@@ 751
komp@@ 751
bo@@ 749
oli@@ 748
konnte 748
ihrer 747
ass@@ 747
Mö@@ 746
gesehen 746
ganze 745
letz@@ 744
meinem 743
senschaf@@ 743
erst 742
unser@@ 742
cken 742
berei@@ 742
hand@@ 740
könnten 739
zur@@ 738
ins 738
ik 738
anden 736
enti@@ 736
unk@@ 733
gem@@ 733
dabei 732
alten 731
kun@@ 731
warum 730
chnologie 730
ed 729
oll@@ 725
Ä@@ 724
win@@ 722
ander 722
rank@@ 722
chti@@ 721
tel 720
Min@@ 716
ker 715
to 714
00 713
10 712
olog@@ 712
Na@@ 710
x 710
pp@@ 704
ück 702
9@@ 702
gel 700
et 699
Y@@ 699
Comp@@ 697
lli@@ 693
Dan@@ 692
Milli@@ 690
mer 688
Ger@@ 680
tu@@ 677
7@@ 676
ster@@ 671
ort@@ 666
Univers@@ 666
ac@@ 666
har@@ 661
erz@@ 659
af@@ 657
Se@@ 657
Je@@ 656
ine 655
Le@@ 655
Qu@@ 654
pt 650
ingen 650
amp@@ 649
son@@ 648
per 646
ide@@ 645
ep@@ 637
ät 633
erg@@ 632
hel@@ 631
Ö@@ 630
ser@@ 625
... 624
tt@@ 624
üs@@ 619
ollar 618
wick@@ 616
Ri@@ 612
nor@@ 611
ort 608
ili@@ 607
enge 607
ay 601
ant 600
alis@@ 598
res@@ 594
enn 590
tim@@ 590
mö@@ 588
1 588
„ 588
Indi@@ 588
nam@@ 586
let@@ 586
Su@@ 584
forma@@ 583
rop@@ 583
fre@@ 579
50 579
wie@@ 576
stem 576
% 573
eg@@ 572
4 572
Bo@@ 571
hol@@ 571
8 561
bri@@ 560
20 559
itu@@ 557
3 556
neh@@ 554
zus@@ 551
sh@@ 543
net 537
ev@@ 537
woh@@ 537
Ihr@@ 537
Afri@@ 536
stat@@ 534
min@@ 533
ou@@ 531
alls 528
Ide@@ 527
fast 526
eter 521
dru@@ 518
ater 518
seh@@ 517
ier 516
our@@ 516
Ne@@ 515
no@@ 515
oment 513
ef@@ 512
tive 508
ord@@ 508
“ 506
au 498
stem@@ 498
S 497
yp@@ 497
net@@ 494
ders 494
wirk@@ 492
end@@ 486
dis@@ 484
tur@@ 481
6 476
20@@ 474
ks 469
ll@@ 469
e-@@ 468
ges 467
mor@@ 467
ff 466
par@@ 465
ast@@ 464
spi@@ 463
ate 460
sion 459
200@@ 457
ers 456
mu@@ 455
wan@@ 455
me@@ 454
7 453
ause 452
ron@@ 452
Chin@@ 449
uter 443
dam@@ 442
passi@@ 442
30 441
dre@@ 441
Geschi@@ 438
tru@@ 437
ast 437
del 435
fri@@ 430
mis@@ 428
fe@@ 421
wa@@ 417
land 417
att@@ 414
eiten 411
sensch@@ 409
&#91; 407
Mensch@@ 406
ion 406
&#93; 405
Ok@@ 404
gs 402
ht 401
ris@@ 399
sor@@ 398
Proz@@ 397
ysi@@ 397
ahr 396
100 395
bel@@ 395
stra@@ 390
glob@@ 386
ess 385
mi@@ 384
stru@@ 383
ds 381
ve 380
les 380
poli@@ 378
Internet 377
sit@@ 377
ari@@ 377
sk@@ 375
stu@@ 374
♪ 373
Din@@ 371
,@@ 370
ei 370
ose 369
vers@@ 368
9 367
bu@@ 366
New 365
pa@@ 362
bre@@ 357
ori@@ 357
spe@@ 356
elleicht 356
scha@@ 355
illi@@ 355
off 355
aff@@ 350
ution 345
nov@@ 342
iz@@ 340
stri@@ 337
ften 335
system 335
ver 335
one 333
mar@@ 331
ologi@@ 330
eff@@ 327
ass 326
olo@@ 324
ure 319
hab@@ 319
app@@ 318
po@@ 317
ns 315
spre@@ 314
ubli@@ 312
do@@ 312
Ta@@ 310
Fr@@ 310
ase 307
TE@@ 306
ste@@ 305
organ@@ 304
ga@@ 304
tor 301
soll@@ 298
No@@ 297
ehr 297
mat@@ 294
ill@@ 292
ah 290
ven@@ 289
ack@@ 288
K 285
Geh@@ 285
opp@@ 284
co@@ 283
rel@@ 278
Tran@@ 277
gend@@ 272
ey 270
omp@@ 270
oo@@ 269
bst 268
eng@@ 267
ll 265
ir 265
wür@@ 265
ven 265
ce 264
fu@@ 262
ans 262
uni@@ 262
ame 262
dro@@ 261
medi@@ 260
eute 259
dri@@ 258
ard 254
pri@@ 252
evol@@ 250
Bei@@ 249
bas@@ 247
ys 244
om 240
stor@@ 238
M 238
mon@@ 238
bet@@ 237
vis@@ 237
chan@@ 234
pi@@ 231
Ü@@ 230
il 227
bede@@ 226
pos@@ 226
od 224
bein@@ 223
blo@@ 218
B 218
ust 217
ance 214
C 214
tin@@ 211
atsächlich 211
ros@@ 210
els 209
D 209
G 209
formation 208
chts 208
ome 207
gh@@ 203
Beisp@@ 203
T 201
ms 200
of 200
assi@@ 198
plan@@ 198
ensch@@ 197
ub@@ 196
dies@@ 194
tal@@ 193
hrend 192
ia 191
/ 188
c 188
tional 187
imp@@ 187
müs@@ 186
ings 186
beit 186
fa@@ 185
I 185
art 182
P 181
rom 178
ity 177
un 177
— 176
&@@ 176
gener@@ 175
ihr@@ 175
ci@@ 175
ad 174
ment 173
dra@@ 171
inv@@ 169
ative 169
ld 168
« 168
» 168
rap@@ 167
ons 166
stand@@ 165
go@@ 163
pre@@ 163
form 160
ry 157
ves 157
ill 155
por@@ 154
V 153
ole 152
don 151
ther@@ 150
th 150
sm@@ 150
line 149
tit@@ 147
ok 145
w 143
O 143
L 143
inst@@ 143
belie@@ 139
kön@@ 135
ats@@ 134
op 134
ters 133
ade 130
grö@@ 130
wei 127
R 126
mag@@ 124
ese 123
vie@@ 123
pres@@ 122
H 120
exp@@ 120
dy 118
mark@@ 118
lob@@ 117
go 116
ly 114
ans@@ 113
same 113
ps 111
wur@@ 110
X@@ 108
ents 108
id 107
ack 107
E 106
F 105
sc@@ 105
ow 103
ue 102
desig@@ 102
ors 102
ächlich 101
xt 100
ong 100
ty 100
fig@@ 98
Sub@@ 97
nd 97
ets 96
exper@@ 96
ca 96
technolog@@ 94
som@@ 91
The 91
abili@@ 90
abei 90
sim@@ 90
vern@@ 89
oc@@ 88
N 88
ws 87
do 86
ood 85
bor@@ 84
rec@@ 84
bot@@ 83
the 83
energ@@ 82
these 82
use 82
ear@@ 81
W 80
ool 79
publi@@ 78
dur@@ 78
our 78
$ 78
kes 77
by 77
ies 77
funk@@ 76
sub@@ 76
ates 75
wom@@ 75
ost 75
hat@@ 74
aga@@ 74
king 74
here 73
than 72
Uni@@ 72
ic 69
sur@@ 69
old 68
trans@@ 68
how 67
ogar 67
wa 67
dat@@ 66
ence 64
hum@@ 64
thei@@ 63
my@@ 63
ther 62
fir@@ 62
hig@@ 62
my 61
ki@@ 58
ago 57
were 56
real 55
ous@@ 53
ke@@ 53
low 53
ory 51
Wh@@ 51
vel@@ 51
U 51
é 50
ble 50
Q@@ 50
lic@@ 49
inc@@ 49
can@@ 49
lear@@ 48
still 48
cy 47
get 47
ars 47
lar@@ 46
big 46
J 45
wn 45
back 45
con@@ 45
num@@ 43
tic@@ 43
dic@@ 43
wischen 43
ary 43
nec@@ 42
see 42
cle@@ 42
ace 42
over 41
able 41
its 41
” 40
… 39
col@@ 37
,000 37
comp@@ 37
X 37
Americ@@ 37
way 36
’ 35
Bec@@ 35
face 35
é@@ 35
we 34
then 34
sts 34
well 33
ou 33
live 33
problem 32
up 32
iness 32
had 32
for 32
ells 30
á@@ 30
can 29
ding 29
red 29
cor@@ 28
car@@ 28
right 27
‘ 27
ular 27
› 27
‹ 27
bit 26
ite 26
cl@@ 26
fam@@ 26
design 25
ep 25
any@@ 25
differ@@ 25
com@@ 25
ness 25
ces 25
q@@ 25
person 25
ple 24
let 24
° 24
β@@ 24
eicht 23
day 23
kind 23
ye@@ 23
bab@@ 23
int 22
Q 22
½ 22
ice 21
sho@@ 21
unity 21
+ 21
coun@@ 21
blem 20
kno@@ 19
cre@@ 19
´ 19
put 19
school 19
_ 19
bec@@ 18
ties 18
lec@@ 18
part 18
..@@ 18
cul@@ 18
Y 17
ting 17
econ@@ 17
ject 17
ture 16
= 16
mem@@ 16
not 16
ight 16
shi@@ 16
è@@ 16
but 16
chnolog@@ 15
ally 15
oug@@ 15
gre@@ 15
ical 15
last 14
fac@@ 14
sible 14
chil@@ 14
ations 13
You 13
lea@@ 13
out 13
cou@@ 13
í@@ 13
Z 13
read@@ 13
cer@@ 13
thr@@ 13
ound 12
ving 12
more 12
you 12
ó@@ 12
@ 12
We 12
imag@@ 12
work 12
ited 11
ating 11
alk 11
tic 11
space 11
‚ 11
² 11
ough 11
ways 11
any 11
time 11
after 11
ã@@ 11
Now 10
illion 10
sort 10
j 10
‟ 10
say 10
pic@@ 10
sec@@ 10
too 10
‒ 10
ful 9
light 9
now 9
ality 9
ree 9
) 9
cri@@ 9
supp@@ 9
soci@@ 9
ght 9
ñ@@ 9
cent@@ 9
ç@@ 9
­ 9
ü 8
water 8
side 8
ect 8
has 8
ning 8
duc@@ 8
quot@@ 8
cal 8
reas@@ 8
if 8
ould 7
pla@@ 7
try 7
resp@@ 7
ely 7
into 7
€ 7
ions 6
ated 6
no 6
own 6
q 6
^ 6
very 6
dren 6
power 6
He 6
cra@@ 5
thin@@ 5
act 5
# 5
When 5
tions 5
ó 5
If 5
dn 5
struc@@ 5
ous 5
This 5
ying 5
It 5
loo@@ 5
his 5
ever 5
ily 5
í 5
self 4
ned 4
human 4
tell 4
life 4
with 4
start 4
cour@@ 4
à 4
ted 4
What 4
cess 4
lot 4
diff@@ 4
data 4
better 3
come 3
find 3
down 3
love 3
only 3
They 3
³ 3
little 3
have 3
â@@ 3
litt@@ 3
ople 3
cap@@ 3
like 3
ked 3
eas@@ 3
technology 3
less 3
used 3
ë@@ 3
very@@ 3
á 3
 3
got 2
That 2
world 2
wh@@ 2
œ@@ 2
And 2
( 2
There 2
make 2
ú@@ 2
perc@@ 2
Amer@@ 2
feel 2
© 2
doing 2
done 2
® 2
new 2
show 2
million 2
ä 2
É@@ 2
take 2
around 2
working 2
ê@@ 2
ý@@ 2
* 2
ved 2
him 2
è 2
× 2
 2
ø@@ 2
β 2
¼ 1
did 1
point 1
look 1
¾ 1
away 1
every 1
want 1
much 1
talk 1
from 1
` 1
other 1
tually 1
thou@@ 1
your 1
place 1
she 1
apos@@ 1
ask 1
body 1
к@@ 1
š@@ 1
£ 1
went 1
ï@@ 1
when 1
`@@ 1
， 1
buil@@ 1
î@@ 1
times 1
change 1
give 1
most 1
comm@@ 1
ö 1
this 1
said 1
tical 1
ō@@ 1
送@@ 1
你@@ 1
葱 1
where 1
ô@@ 1
thought 1
something 1
thing 1
﻿ 1
spec@@ 1
wing 1
happ@@ 1
ween 1
sci@@ 1
Well 1
econom@@ 1
 1
 1
ded 1
produc@@ 1
first 1
Č@@ 1
Ä 1
understand 1
fore 1
¶ 1
Ű@@ 1
ø 1
hear@@ 1
ě@@ 1
with@@ 1
ć 1
