, 120468
. 100941
the 78776
to 49693
a 48527
of 46368
and 44366
that 35355
in 33054
I 32068
is 26439
it 25056
you 24781
c@@ 23431
&apos;s 22611
we 21542
f@@ 18920
ing 18845
ed 18833
s 18027
es 17231
And 17153
in@@ 16915
this 16356
e@@ 15219
on 15049
&quot; 13841
s@@ 13819
p@@ 13671
y 13628
t@@ 13269
are 12899
h@@ 12637
o@@ 12388
b@@ 12366
m@@ 12109
was 11850
re@@ 11800
for 11415
d@@ 11094
an 10943
al 10867
have 10743
a@@ 10535
-- 10481
t 10375
i@@ 10258
w@@ 10257
they 10169
with 9901
can 9425
g@@ 9414
at 9206
st@@ 9118
one 9060
? 9039
as 9009
en@@ 8982
li@@ 8777
or 8771
y@@ 8743
&apos;t 8725
all 8715
what 8707
ar@@ 8702
an@@ 8667
-@@ 8642
So 8591
about 8394
ly 8379
be 8313
on@@ 8195
de@@ 8091
v@@ 8085
e 8073
u@@ 8057
al@@ 7966
at@@ 7947
l@@ 7919
ch@@ 7515
con@@ 7425
not 7364
: 7251
ac@@ 7216
pro@@ 7195
ma@@ 7153
un@@ 7144
or@@ 7041
do 6889
di@@ 6679
there 6666
&apos;re 6635
our 6576
ti@@ 6573
th@@ 6543
It 6499
d 6436
like 6373
S@@ 6357
vi@@ 6339
people 6262
my 6236
from 6163
le@@ 6015
ds 5994
ro@@ 5983
so 5942
r@@ 5857
h 5751
out 5666
n@@ 5619
but 5555
ts 5519
si@@ 5516
tion 5486
is@@ 5440
ce 5439
me 5373
very 5362
ve 5309
as@@ 5308
ul@@ 5279
ic@@ 5276
er 5243
ec@@ 5214
ent 5203
ri@@ 5201
The 5199
just 5115
ation 5038
A@@ 5033
We 5014
el@@ 5006
ou@@ 5002
se@@ 4984
he 4945
mo@@ 4931
But 4928
op@@ 4894
if 4862
C@@ 4826
these 4812
em@@ 4797
ra@@ 4734
by 4717
ap@@ 4716
k@@ 4712
ex@@ 4648
them 4624
up 4620
us 4575
n 4572
know 4570
le 4553
going 4553
qu@@ 4541
ur@@ 4438
er@@ 4427
more 4409
k 4312
when 4265
p 4260
it@@ 4196
thing 4167
had 4148
because 4108
think 4077
o 4039
M@@ 4026
ar 4001
see 4000
lo@@ 3996
ate 3938
get 3934
which 3906
O@@ 3902
your 3899
their 3893
how 3870
who 3869
be@@ 3849
ers 3848
j@@ 3834
king 3828
am@@ 3826
ver@@ 3814
su@@ 3811
were 3800
te 3794
l 3785
ir@@ 3781
ta@@ 3771
here 3756
really 3741
ent@@ 3720
il@@ 3717
would 3700
ci@@ 3699
D@@ 3686
ot@@ 3679
&apos;ve 3679
th 3664
m 3652
time 3633
comp@@ 3534
H@@ 3533
way 3528
for@@ 3523
ge 3523
where 3521
You 3514
te@@ 3495
sa@@ 3473
en 3472
B@@ 3470
om@@ 3470
me@@ 3467
se 3402
ic 3394
&apos;m 3391
world 3391
This 3389
pl@@ 3388
sh@@ 3359
has 3343
able 3305
to@@ 3304
E@@ 3301
then 3290
z@@ 3290
ure 3279
res@@ 3276
ally 3262
don 3258
per@@ 3239
par@@ 3216
into 3205
os@@ 3194
some 3192
ad 3175
us@@ 3168
ad@@ 3147
actually 3147
ol@@ 3137
wor@@ 3125
ter@@ 3085
ch 3083
P@@ 3076
ks 3070
bo@@ 3042
ity 3026
T@@ 3025
ence 3016
ne@@ 3013
years 3010
ut@@ 3001
ely 2979
will 2965
co@@ 2963
things 2930
now 2929
go 2897
et@@ 2892
ine 2863
au@@ 2860
other 2852
Now 2837
1@@ 2829
ents 2826
want 2815
et 2790
sp@@ 2778
W@@ 2766
ab@@ 2744
could 2731
They 2729
G@@ 2713
es@@ 2701
make 2696
F@@ 2692
ther 2690
ph@@ 2678
been 2669
ting 2650
g 2623
wh@@ 2621
um@@ 2593
dis@@ 2593
N@@ 2575
im@@ 2566
ty 2557
w 2542
po@@ 2537
our@@ 2534
tra@@ 2520
come 2519
R@@ 2518
right 2508
ving 2497
most 2473
said 2466
something 2406
ous 2399
gu@@ 2390
than 2369
ding 2362
cre@@ 2361
ated 2358
I@@ 2345
ag@@ 2336
tri@@ 2315
no 2309
work 2306
tur@@ 2294
those 2292
much 2290
com@@ 2265
ked 2263
new 2244
pre@@ 2241
first 2235
two 2234
old 2232
ni@@ 2219
little 2217
ment 2214
pa@@ 2211
got 2210
ge@@ 2208
age 2196
der 2192
L@@ 2191
also 2186
back 2181
we@@ 2168
ies 2167
ig@@ 2163
stu@@ 2152
ted 2149
est 2132
gi@@ 2119
no@@ 2115
look 2112
say 2109
ay 2105
over 2101
In 2099
his 2095
rec@@ 2095
tr@@ 2090
and@@ 2088
end 2086
J@@ 2079
♫ 2079
ans 2078
That 2073
bi@@ 2071
ron@@ 2068
x@@ 2059
ha@@ 2056
la@@ 2054
de 2037
life 2022
ys 2021
ves 2017
cl@@ 2017
tions 2012
only 2010
day 1993
body 1980
she 1968
ful 1967
What 1966
ter 1964
x 1951
tic@@ 1939
many 1936
ms 1933
her 1922
tive 1917
mon@@ 1902
c 1902
kind 1900
need 1890
go@@ 1890
even 1887
do@@ 1885
A 1880
Th@@ 1874
take 1874
lot 1859
hi@@ 1858
ying 1853
ing@@ 1846
any 1828
good 1805
coun@@ 1795
sc@@ 1795
als 1794
its 1787
ght 1774
ons 1761
ali@@ 1761
ase 1756
There 1753
du@@ 1750
did 1749
gh@@ 1749
gr@@ 1745
bu@@ 1744
pe@@ 1744
around 1739
pos@@ 1734
ded 1732
happ@@ 1721
ws 1718
fe@@ 1713
so@@ 1712
ved 1707
every@@ 1701
car@@ 1700
different 1692
down 1681
; 1675
he@@ 1675
ture 1674
ck@@ 1672
enti@@ 1656
wi@@ 1653
ist@@ 1653
pres@@ 1653
through 1647
&apos;ll 1643
ant 1628
use 1622
ru@@ 1613
oc@@ 1612
sur@@ 1607
fi@@ 1606
0@@ 1597
ties 1594
min@@ 1592
fin@@ 1592
i 1586
sen@@ 1582
est@@ 1574
ber 1574
Well 1572
fa@@ 1567
same 1557
ating 1555
ear@@ 1536
ite 1526
ors 1526
rel@@ 1521
ob@@ 1517
story 1512
pr@@ 1508
lu@@ 1508
being 1506
br@@ 1501
try 1498
side 1494
war@@ 1486
doing 1486
sol@@ 1484
K@@ 1482
ces 1481
mat@@ 1481
ose 1478
gro@@ 1477
every 1476
some@@ 1469
og@@ 1467
el 1464
comm@@ 1461
any@@ 1461
If 1461
inter@@ 1458
He 1458
am 1453
Y@@ 1447
the@@ 1446
dic@@ 1442
ep@@ 1440
lear@@ 1439
ast 1431
ei@@ 1427
put 1427
gra@@ 1425
self 1421
sho@@ 1411
ning 1410
red 1408
ever 1408
ey 1407
chan@@ 1402
gen@@ 1401
col@@ 1400
2@@ 1395
st 1392
ess@@ 1382
tt@@ 1382
ary 1374
ze 1371
ck 1368
sci@@ 1363
und@@ 1362
ke 1361
called 1361
three 1352
percent 1350
made 1344
har@@ 1342
tre@@ 1338
f 1331
ok 1330
talk 1327
ough 1324
spec@@ 1316
ned 1316
bas@@ 1310
ame 1306
tional 1304
den@@ 1301
da@@ 1299
sy@@ 1298
pic@@ 1297
plan@@ 1295
ates 1294
ations 1273
&apos;d 1273
buil@@ 1265
change 1260
ill@@ 1254
human 1250
ple 1243
ven 1243
ect 1237
soci@@ 1230
ue 1224
ga@@ 1224
well 1218
ble 1217
TED 1213
own 1212
cor@@ 1211
all@@ 1209
ome 1208
why 1202
find 1201
.@@ 1200
oll@@ 1198
eri@@ 1197
fact 1196
tell 1182
der@@ 1179
tal@@ 1178
ind 1175
ber@@ 1174
year 1172
let 1169
uni@@ 1168
today 1158
gre@@ 1152
ice 1151
idea 1149
ver 1149
used 1147
ft 1145
na@@ 1144
ach@@ 1144
ood 1143
didn 1143
ild 1143
hig@@ 1139
ion 1132
id 1132
should 1129
after 1129
man@@ 1127
low 1126
tu@@ 1126
went 1106
pri@@ 1106
5 1105
started 1105
ev@@ 1102
sm@@ 1100
sts 1096
before 1095
mar@@ 1094
tic 1092
important 1090
tro@@ 1090
great 1086
ste@@ 1085
off 1084
ass@@ 1083
pi@@ 1082
loo@@ 1079
with@@ 1073
od 1072
ance 1072
times 1072
cou@@ 1071
ese 1071
b 1070
course 1069
shi@@ 1069
om 1068
sion 1067
wing 1067
,000 1066
last 1065
pla@@ 1065
hear@@ 1060
place 1059
give 1059
ago 1058
des@@ 1056
ens 1056
um 1055
big 1054
str@@ 1054
kes 1049
another 1049
wer@@ 1048
mem@@ 1046
can@@ 1044
better 1042
ry 1040
ins 1039
bit 1038
ist 1037
eng@@ 1032
brain 1031
ger 1030
stor@@ 1024
ical 1023
und 1023
vis@@ 1022
happen@@ 1022
might 1021
thought 1016
les 1014
bab@@ 1013
tiv@@ 1012
lea@@ 1008
ten@@ 1008
bl@@ 1002
Thank 1001
still 999
ings 997
ters 994
duc@@ 993
Wh@@ 993
water 992
together 988
ep 986
technology 985
ell@@ 982
start 982
part 982
wn 980
U@@ 978
fam@@ 973
him 973
never 973
show 971
kno@@ 970
cul@@ 969
num@@ 969
wa@@ 967
cy 966
problem 966
tion@@ 965
poli@@ 964
came 963
wer 962
exp@@ 961
next 960
fac@@ 959
interest@@ 959
0 958
ari@@ 957
bot@@ 955
ran@@ 954
il 953
ically 951
system 951
Le@@ 951
ros@@ 947
sim@@ 947
When 946
does 945
19@@ 942
man 937
imag@@ 937
found 937
mi@@ 936
ust 936
Americ@@ 934
ke@@ 933
imp@@ 931
incre@@ 929
comes 925
nec@@ 925
eff@@ 924
ort 922
less 921
ory 919
4@@ 918
cess 917
ous@@ 916
cri@@ 915
cent@@ 915
few 914
each 913
again 908
too 908
looking 904
under@@ 904
question 900
ybe 899
mean 895
beg@@ 894
ost 893
gs 892
olog@@ 891
bre@@ 890
cer@@ 889
How 888
produc@@ 888
data 888
tly 887
sk@@ 887
between 886
women 882
fri@@ 879
lic@@ 878
ell 877
point 877
3@@ 875
&apos; 873
Because 873
struc@@ 873
ser@@ 871
tin@@ 869
oo@@ 869
ir 866
ps 866
love 863
inv@@ 860
Talk 853
nat@@ 849
sible 847
ns 846
ject 846
long 845
ars 844
mis@@ 843
secon@@ 839
ality 839
light 838
done 838
thin@@ 838
ach 837
example 837
iz@@ 836
gener@@ 836
read@@ 835
spe@@ 833
ited 832
10 832
lan@@ 832
children 830
working 828
using 827
wanted 823
live 822
ast@@ 821
8@@ 818
sort 817
ris@@ 817
rap@@ 816
mus@@ 816
doesn 815
V@@ 811
5@@ 811
sec@@ 811
econom@@ 810
cap@@ 809
understand 809
formation 807
St@@ 804
reas@@ 803
e-@@ 802
lar@@ 802
tical 801
help 795
sta@@ 795
resp@@ 794
gl@@ 793
zed 793
Subtitles 791
Transcript 791
selves 790
ater 790
develop@@ 790
call 790
ily 789
ne 789
whole 789
ki@@ 788
app@@ 788
million 788
cra@@ 783
heal@@ 782
may 779
Afri@@ 778
lec@@ 771
ness 771
bor@@ 771
ili@@ 771
ess 770
real 765
school 763
away 762
believe 761
dn 761
ho@@ 761
ask 761
r 760
feel 760
trying 759
experi@@ 759
vol@@ 758
cal 756
! 754
eas@@ 752
unity 752
cur@@ 751
power 750
person 750
iness 749
pt 749
ide@@ 747
mark@@ 747
ass 745
ells 744
act 744
face 743
always 743
cle@@ 742
ans@@ 741
ular 740
sub@@ 739
dri@@ 739
re 738
ard 736
ale 733
hum@@ 732
ack 732
6@@ 730
des 729
star@@ 728
supp@@ 725
ions 724
design 722
ll 722
dy 721
publi@@ 720
space 719
stand@@ 717
bes@@ 717
son@@ 713
abili@@ 712
form 712
stri@@ 711
line 708
ff@@ 708
ff 701
ble@@ 698
ill 696
organ@@ 696
off@@ 693
fig@@ 693
hal@@ 691
ution 687
inc@@ 687
vern@@ 685
9@@ 684
itu@@ 682
trans@@ 680
energ@@ 677
ets 677
ak@@ 674
2 671
my@@ 670
inn@@ 666
assi@@ 666
vie@@ 665
00 663
op 662
ong 659
ow 657
pp@@ 655
her@@ 653
mor@@ 653
7@@ 650
Un@@ 644
ere 641
medi@@ 639
ther@@ 638
ca 638
men 637
mal 637
tel@@ 636
ging 635
blo@@ 634
opp@@ 629
tor 628
let@@ 627
fl@@ 626
mp@@ 624
yp@@ 623
ight 620
por@@ 616
inst@@ 615
ways 613
An@@ 611
ort@@ 610
nor@@ 610
ken 607
ie@@ 607
sel@@ 605
In@@ 599
ysi@@ 598
ie 597
bra@@ 591
ster 586
dra@@ 584
hel@@ 584
glob@@ 581
desig@@ 579
land 578
fol@@ 577
ative 577
tru@@ 576
ia 576
Indi@@ 574
Chin@@ 572
art 570
50 569
differ@@ 567
oment 566
lin@@ 561
1 560
20 560
ung 556
ges 556
ack@@ 542
ree 538
illi@@ 537
stra@@ 537
Mar@@ 536
Ch@@ 536
hand@@ 535
son 535
els 533
dan@@ 532
ders 531
men@@ 530
att@@ 526
ein@@ 523
ah 521
wis@@ 520
ll@@ 520
thou@@ 518
K 518
No@@ 515
vel@@ 515
ef@@ 512
exper@@ 510
uter 509
8 505
den 504
rop@@ 502
ges@@ 500
&#91; 496
&#93; 496
evol@@ 490
per 490
’ 489
dro@@ 488
4 487
ften 485
mit@@ 483
quest@@ 482
ob 480
ven@@ 474
Ma@@ 474
aff@@ 474
ger@@ 473
dies 472
S 471
fra@@ 471
20@@ 469
mag@@ 468
bri@@ 467
os 467
En@@ 466
nam@@ 464
200@@ 458
fer@@ 457
New 455
... 454
iel@@ 452
ner 451
nov@@ 448
ori@@ 446
dar@@ 446
dr@@ 444
ologi@@ 439
30 439
fe 435
illion 431
mm@@ 430
ant@@ 429
3 426
ord@@ 425
vers@@ 425
oug@@ 423
ut 421
fre@@ 420
Al@@ 419
eh@@ 419
net@@ 419
diff@@ 414
bec@@ 414
af@@ 413
dre@@ 413
Li@@ 409
7 404
em 404
bar@@ 402
6 401
ur 400
sch@@ 400
del 399
wom@@ 396
stem@@ 395
Internet 394
ern 392
ten 390
9 390
dru@@ 385
dig@@ 385
aga@@ 384
arti@@ 380
hr@@ 378
sit@@ 377
ank 376
dur@@ 376
100 376
eg@@ 376
sor@@ 373
Ok@@ 373
end@@ 368
spi@@ 366
ich 362
D 360
elt 359
Ar@@ 358
mer 356
war 355
Re@@ 350
u 349
alk 349
— 348
ah@@ 345
fu@@ 344
win@@ 343
♪ 342
un 333
ker 331
belie@@ 329
tim@@ 326
ld 326
fir@@ 324
wei@@ 323
V 322
ok@@ 320
vor@@ 311
int 310
ace 308
ben@@ 304
Mo@@ 298
ople 297
bel@@ 294
year@@ 293
ati@@ 288
ches 287
mer@@ 286
Au@@ 286
oh@@ 284
enge 283
M 279
ich@@ 278
aus@@ 275
hol@@ 273
Se@@ 267
xt 267
ye@@ 267
T 266
ft@@ 266
wan@@ 266
gen 264
eu@@ 264
Par@@ 262
chn@@ 261
rit@@ 257
z 257
amp@@ 253
die 249
da 248
passi@@ 247
hab@@ 246
spre@@ 245
los@@ 242
Su@@ 241
Z@@ 240
ung@@ 240
ole 238
fan@@ 238
B 238
oli@@ 237
ster@@ 237
G 236
eter 236
ier 232
C 232
fast 232
Di@@ 232
Na@@ 232
stand 230
Ph@@ 227
,@@ 226
Pro@@ 226
exam@@ 225
ause 223
ste 222
alls 221
lau@@ 221
ade 218
Ne@@ 218
very@@ 218
set@@ 216
perc@@ 214
Be@@ 212
dern 212
P 212
ein 212
ub@@ 211
sten 210
Mus@@ 209
bin@@ 208
gest@@ 208
stat@@ 207
lli@@ 206
Ge@@ 206
ould 204
im 203
Sp@@ 200
mit 200
thr@@ 198
Bo@@ 197
fore 196
call@@ 192
devel@@ 191
R 186
tern 181
imm@@ 178
stru@@ 177
/ 175
Ta@@ 173
O 173
mu@@ 172
Ex@@ 166
Per@@ 166
import@@ 165
ert 165
TE@@ 164
stem 163
som@@ 162
Bu@@ 159
hat@@ 158
tually 158
Ger@@ 156
Me@@ 156
L 154
Ab@@ 152
erg@@ 152
sam@@ 151
For@@ 148
alis@@ 148
Mon@@ 147
dat@@ 147
bein@@ 145
ik@@ 143
Je@@ 141
Ver@@ 141
rom 139
Sch@@ 138
gan@@ 136
hei@@ 134
ollar 133
eig@@ 131
zi@@ 131
We@@ 130
Gen@@ 130
chil@@ 130
unter@@ 129
X@@ 129
lob@@ 128
H 128
zen 127
gel@@ 127
kl@@ 127
wel@@ 127
Sy@@ 126
Inter@@ 126
Ber@@ 124
net 124
Ri@@ 123
Univers@@ 123
econ@@ 122
Qu@@ 119
E 119
ler 118
Man 117
rie@@ 116
wo 113
cher 113
F 113
$ 111
neu@@ 111
cour@@ 111
Te@@ 110
ek@@ 110
bt 110
Des@@ 109
ool 109
&apos;@@ 108
q 107
Fr@@ 106
tit@@ 104
ig 104
Sta@@ 104
Bi@@ 103
uns 103
ier@@ 102
tes 99
unk@@ 99
wir@@ 96
Or@@ 96
- 94
je@@ 93
ander@@ 92
ts@@ 90
Min@@ 89
Gr@@ 87
vor 83
Dan@@ 82
Sa@@ 81
Nat@@ 81
rank@@ 78
scri@@ 77
Comp@@ 75
Q@@ 75
bar 74
hin@@ 74
ern@@ 72
Ein@@ 72
technolog@@ 71
lt 70
Fre@@ 70
000 69
versu@@ 68
&@@ 68
chen 68
aten 68
Uni@@ 68
N 67
Stu@@ 66
dam@@ 64
W 62
Fl@@ 62
chnolog@@ 62
thei@@ 59
alt 59
forma@@ 58
ken@@ 58
v 57
ih@@ 56
J 55
ka 55
Her@@ 54
hen 54
Also 53
che 53
q@@ 51
X 48
ound 48
U 46
Bei@@ 46
ou 46
script 46
seh@@ 45
tz@@ 45
ander 45
lung 44
Art 44
é@@ 43
rei@@ 42
é 41
wa 41
gel 41
eil 40
gut 39
uns@@ 38
dren 37
sei@@ 37
au 37
Medi@@ 36
Y 35
sen 34
ann 34
quot@@ 33
War@@ 33
iel 33
hat 31
Was 31
bin 30
Kin@@ 30
” 30
Tran@@ 29
allen 29
Q 28
Kon@@ 28
ubli@@ 28
“ 28
+ 26
dung 25
len 25
du 25
lei@@ 24
elle 24
Bec@@ 23
nis@@ 23
amen 22
ehr@@ 22
best@@ 22
wen@@ 22
kan@@ 22
nis 21
titles 21
Wei@@ 20
% 19
Er@@ 19
ja 19
Z 18
iger 18
Mit@@ 18
tel 17
á@@ 17
olo@@ 17
nd 17
Sub@@ 17
enn 17
_ 17
nie 16
gem@@ 16
Bil@@ 15
bet@@ 15
gether 15
unter 15
í@@ 15
das 15
ween 14
aut 14
nt 14
wick@@ 14
zu@@ 14
Wis@@ 13
esn 13
erz@@ 13
aus 13
atz 13
stell@@ 13
ahr@@ 13
heit 13
ã@@ 13
Milli@@ 12
ik 12
lich@@ 12
è@@ 12
# 11
– 11
@ 11
… 11
ler@@ 10
litt@@ 10
= 10
j 10
eine 9
sch 9
ó@@ 9
von 9
ien 9
eren 9
lie@@ 9
ç@@ 9
kon@@ 8
zur@@ 8
ei 8
ende 8
Rei@@ 8
cken 8
bis 8
cht@@ 8
Din@@ 8
dem 8
apos@@ 8
ö@@ 8
Zu@@ 8
ige 7
) 7
Ide@@ 7
eit 7
wollen 7
omp@@ 7
Wir@@ 6
mei@@ 6
pf@@ 6
Land 6
zu 6
ats@@ 6
liche 5
weil 5
funk@@ 5
dies@@ 5
Fra@@ 5
aber 5
oren 5
ó 5
sein 5
beit 5
sie 5
í 5
( 4
ffen 4
Amer@@ 4
cht 4
Regi@@ 4
^ 4
fen 4
Proz@@ 4
ñ@@ 4
Der 4
ä@@ 4
gend@@ 4
verst@@ 4
wie 4
‘ 4
ben 3
nun 3
Nach@@ 3
auf 3
* 3
Gel@@ 3
lich 3
ï@@ 3
immer 3
tet 3
einf@@ 3
sche 3
â 3
 3
 3
det 3
utz@@ 3
á 3
ù 2
zei@@ 2
dass 2
Das 2
einer 2
..@@ 2
nah@@ 2
tei@@ 2
doch 2
Zei@@ 2
mt 2
nach@@ 2
wei 2
£ 2
É@@ 2
mir 2
Es 2
ehr 2
ê@@ 2
kom@@ 2
onen 2
blem 2
Aus@@ 2
ć 2
è 2
aum 2
ë 2
Problem 2
Um@@ 2
ø@@ 2
asch@@ 1
ù@@ 1
Tag 1
Geb@@ 1
ú@@ 1
utzen 1
gef@@ 1
geb@@ 1
º@@ 1
ische 1
für 1
bede@@ 1
ò@@ 1
à@@ 1
√ 1
± 1
Idee 1
scha@@ 1
tung 1
tun 1
ör@@ 1
lichen 1
auf@@ 1
assen 1
üs@@ 1
送@@ 1
你@@ 1
葱 1
ë@@ 1
wus@@ 1
Geh@@ 1
nen@@ 1
ô@@ 1
² 1
zur 1
eigen@@ 1
noch 1
oder 1
gung 1
à 1
Č@@ 1
Sei@@ 1
ø 1
ě@@ 1
esen 1
hier 1
