,
.
the
in
to
of
a
and
die
und
that
I
der
&quot;
ist
is
you
it
es
das
zu
&apos;s
we
ich
wir
was
:
?
And
this
Sie
an
sie
ein
den
--
von
dass
nicht
eine
so
Und
on
are
mit
for
have
auf
they
er
with
Ich
So
sich
wie
can
sind
all
be
&apos;t
what
für
at
haben
man
as
about
als
um
-@@
war
not
Das
do
one
or
there
Es
&apos;re
It
like
im
my
dem
people
diese
er@@
from
me
Wir
ver@@
einen
des
uns
s
re@@
wenn
an@@
also
ing
k@@
our
b@@
ed
but
en@@
The
t@@
können
un@@
werden
in@@
S@@
aus
just
very
s@@
We
te
out
oder
en
But
über
hat
these
if
us
ten
by
be@@
st@@
B@@
he
einem
einer
d@@
them
aber
up
know
auch
going
Die
g@@
m@@
kann
Aber
h@@
more
t
f@@
when
ge@@
wird
had
sehr
♫
p@@
because
nur
think
see
R@@
ch@@
A@@
how
Menschen
–
gibt
which
your
their
In
who
get
were
K@@
c@@
will
T@@
really
hier
mich
H@@
would
L@@
&apos;ve
ab@@
sein
F@@
y
e
time
l@@
dann
You
e@@
here
i@@
M@@
D@@
way
world
&apos;m
z@@
This
C@@
P@@
has
noch
sehen
then
sch@@
etwas
al
y@@
into
some
G@@
w@@
ung
don
actually
dieser
nach
r@@
habe
am
o
where
mir
go
years
ar@@
o@@
E@@
n@@
Ver@@
el@@
things
now
aus@@
a@@
ein@@
mehr
Welt
gen
Wenn
al@@
other
Now
vor
An@@
ti@@
want
li@@
Sch@@
;
alle
N@@
or@@
bei
could
i
They
-
W@@
ation
ri@@
di@@
make
been
ter
de
machen
on@@
wurde
le
Ihnen
auf@@
said
end
u@@
right
zum
than
ent@@
something
thing
m
ie
um@@
durch
immer
no
TED
those
meine
much
able
ungen
at@@
wirklich
da
it@@
le@@
first
two
her
ge
Also
little
got
weil
J@@
g
ro@@
as@@
tun
over
O@@
viel
work
unsere
say
sp@@
look
Was
back
hatte
his
dieses
v@@
That
th@@
Er
ch
es@@
life
tion
et@@
ischen
only
st
sagen
ts
&apos;
Zeit
she
most
ihre
What
j@@
diesem
keine
viele
ate
au@@
Leute
chen
kind
Leben
de@@
need
even
I@@
d
ische
eines
take
new
many
lot
wissen
waren
vor@@
l
ke
sten
müssen
ad@@
Dinge
ern
!
ä@@
ers
Jahren
good
ul@@
lich
is@@
andere
zu@@
ei@@
There
Der
did
diesen
around
sagte
einfach
jetzt
ent
her@@
op@@
bin
über@@
Z@@
am@@
ihr
em@@
use
ma@@
different
day
p
zwei
sh@@
zur
down
se
anderen
Talk
same
come
geht
its
through
wo
gehen
Re@@
&apos;ll
Art
ter@@
pro@@
A
men
St@@
Wie
alles
si@@
ra@@
Subtitles
Transcript
n
ur@@
os@@
Well
ap@@
h
ly
ted
würde
dies
ated
bis
ste
qu@@
Be@@
co@@
ag@@
k
der@@
ac@@
ken
ally
ber@@
damit
In@@
ert
being
con@@
se@@
lo@@
doing
Jahre
du
every
om@@
If
ü@@
Man
He
dis@@
ol@@
put
ic
ds
gut
10
f
ve
ar
ck@@
lichen
ger
Er@@
muss
Ein@@
selbst
ins
called
schon
V@@
three
kommen
percent
any
made
mein
geben
ale
talk
vi@@
ungs@@
nen
ir@@
gen@@
vielleicht
ting
ob
bi@@
Ab@@
ihnen
Nun
tions
system
denn
eren
&apos;d
change
Al@@
ger@@
Aus@@
well
human
mal
3@@
el
wieder
ö@@
z
möchte
Geschichte
ck
kl@@
Ge@@
ieren
ut@@
liche
davon
own
pl@@
ine
why
find
.@@
ce
fact
let
Sp@@
ations
b
est
heute
tell
bo@@
ous
ging
year
ot@@
age
la@@
gi@@
today
tr@@
ni@@
Hier
ec@@
idea
Un@@
kt
didn
ft
after
Diese
off
Vor@@
Kinder
ihn
ganz
einige
hatten
wollen
should
tet
20
ex@@
te@@
denken
finden
tra@@
dort
went
started
to@@
ic@@
big
ant
könnte
drei
ben
before
nehmen
important
unter@@
great
ak@@
che
br@@
po@@
ie@@
last
...
ne@@
ta@@
ne
course
all@@
per@@
bit
ks
em
macht
sen
ph@@
place
give
ze
unserer
pre@@
genau
il@@
im@@
cht
darüber
gt
ans
paar
us@@
another
used
still
seine
isch
better
nun
ating
ere
par@@
brain
tive
hin@@
sondern
dr@@
wurden
werde
meiner
story
elle
den@@
zen
might
gel@@
thought
old
Jahr
Ein
ing@@
and@@
gab
neue
unter
bar
iert
sa@@
denen
Thank
part
ig@@
problem
kommt
tatsächlich
ago
water
lei@@
Als
ens
together
technology
50
start
ges@@
vom
him
never
show
len
rei@@
came
Beispiel
inter@@
next
gemacht
for@@
th
ru@@
enden
gr@@
Ar@@
ff@@
lassen
ary
When
does
zwischen
Problem
sogar
denke
ou@@
ten@@
ja
fen
ever
stellen
wäre
sen@@
2@@
wei@@
Le@@
less
ure
gra@@
Teil
x
too
few
each
leben
eln
Frage
again
weiter
war@@
looking
&#91;
&#93;
sel@@
question
kein
zeigen
pe@@
mean
Kon@@
bringen
Tag
data
dazu
How
res@@
cht@@
between
weiß
women
30
ellen
ors
et
wer@@
point
ast@@
Because
tri@@
U@@
nie
würden
gl@@
Frauen
love
einmal
gesch@@
arbeiten
4@@
sieht
glaube
min@@
na@@
live
Dies
found
ihren
ob@@
tes
we@@
Eine
long
ier@@
ende
ded
Pro@@
ms
ding
ment
done
ty
fer@@
example
da@@
ves
Ma@@
children
land
hi@@
working
ster
sort
using
2
ohne
king
passiert
nichts
sk@@
ran@@
Mar@@
stand
dafür
wanted
ersten
ell@@
zurück
ell
New
real
meinen
tern
chten
sprechen
hei@@
gerade
doesn
com@@
cher
sc@@
do@@
während
understand
unser
etwa
alen
5@@
ci@@
Auf@@
sagt
Millionen
3
ons
Arbeit
help
bl@@
wi@@
fl@@
ings
erste
form
call
whole
million
su@@
enti@@
kam
Di@@
est@@
mis@@
school
verstehen
may
daran
so@@
mit@@
eu@@
person
chte
try
Prozent
Internet
e-@@
Ihre
car@@
100
mi@@
mo@@
rel@@
hal@@
jeder
ity
letzten
away
believe
man@@
Land
body
feel
trying
har@@
ben@@
fast
sollte
son
the@@
light
sollten
Idee
power
no@@
eh@@
gs
konnte
ihrer
design
gesehen
Mo@@
ganze
always
Über@@
meinem
ance
he@@
str@@
elt
könnten
u
dabei
heit
lie@@
warum
space
gu@@
c
1@@
ker
country
ill@@
bekommen
lan@@
ßen
wer
four
maybe
tu@@
comes
♪
meisten
lin@@
ties
x@@
create
schen
wollte
gest@@
wor@@
red
licher
große
kon@@
One
ay
kids
bar@@
side
ach@@
tic
become
det
brauchen
durch@@
wichtig
information
Daten
tion@@
19@@
En@@
ges
China
tor
Bi@@
ziemlich
per
Weg
thinking
bt
nt
small
Okay
bu@@
är@@
ah@@
off@@
natürlich
ha@@
took
halten
quite
ry
doch
darauf
Mal
Zu@@
Warum
Li@@
mar@@
ass@@
Ende
ung@@
pi@@
making
These
kleinen
besser
ab
ved
ste@@
ents
pri@@
erte
ver
means
geb@@
Technologie
welche
ase
weniger
energy
ser@@
everything
play
win@@
ates
ber
me@@
fe
Wasser
My
fe@@
building
sense
mer@@
art
getting
number
r
ask
future
All
gef@@
mon@@
lu@@
20@@
ist@@
second
Y@@
She
Bild
zusammen@@
ster@@
unseren
ün@@
jemand
7@@
zi@@
five
bedeutet
says
happened
set
tig
bei@@
Gehirn
ep@@
os
Oh
talking
ely
15
left
ical
money
go@@
kleine
ik@@
ut
ways
tung
Why
dra@@
build
eigentlich
äu@@
Ch@@
weise
mer
enough
ful
Im
Dollar
food
hand
best
Ihr
gegen
ia
times
1
lives
ler
Sache
4
sta@@
home
ach
kte
dar@@
zusammen
allen
cl@@
fi@@
ihm
Let
af@@
star@@
alt
ies
ß
ok@@
social
probably
hören
ones
care
5
makes
äl@@
ho@@
des@@
tt@@
Mann
sub@@
zeigt
Dann
interesting
Here
sol@@
oc@@
Geld
Th@@
bauen
%
such
seen
6@@
pretty
told
„
Qu@@
ali@@
8
countries
ability
Dank
stuff
Inter@@
ters
gesagt
anything
dachte
across
else
half
großen
7
ur
vier
iz@@
Seite
moment
Denn
Africa
fol@@
lernen
lt
ence
dollars
asked
führen
schaffen
tigen
jeden
without
room
Par@@
lang
Frau
ev@@
Weise
pres@@
while
No
bes@@
8@@
wa@@
Menge
liches
ek@@
ose
York
keinen
Se@@
hätte
indem
Zukunft
ien
tete
mat@@
d-@@
hard
hen
cken
id
case
trans@@
40
zurück@@
experience
ts@@
ses
problems
mu@@
coming
happen
ics
0@@
ner
alten
science
blo@@
move
under@@
As
ble
stehen
Grund
Um@@
Mit@@
face
fin@@
bri@@
oh@@
living
lich@@
les
seiner
happens
Ha@@
city
aten
having
Lebens@@
ast
gel
dern
stellt
cks
gend
ws
line
je@@
Raum
“
Ort
los
simple
For
learn
cor@@
ganzen
onen
goes
saw
Person
lange
helfen
und@@
—
vielen
’
seit
neuen
ß@@
men@@
9@@
än@@
gener@@
nach@@
ör@@
Probleme
OK
up@@
reason
cre@@
glauben
later
Gen@@
heißt
ving
stri@@
Wei@@
ft@@
over@@
ierte
Danke
att@@
global
Da
whether
basically
mind
liegt
versch@@
versuchen
später
family
re
ys
hin
bad
bre@@
computer
Gr@@
funktioniert
Stadt
picture
Ja
ches
lung
bel@@
Kind
beim
saying
Str@@
mm@@
Erde
almost
heraus
stra@@
book
dic@@
oft
fer
car
nutzen
days
wahrscheinlich
Ber@@
sur@@
sicher
Moment
health
sah
top
ps
schnell
wenig
high
pa@@
gute
sche
mor@@
ma
possible
Jetzt
imp@@
yet
Nach@@
app@@
arti@@
System
answer
wegen
Vielen
erst
S
sure
oll@@
konnten
gets
Her@@
fa@@
zei@@
fra@@
mus@@
6
ori@@
ative
eigenen
essen
ße
fall
history
Unter@@
schaft
ideas
sion
ange@@
business
fragen
true
unserem
planet
ationen
ness
someone
Mit
anders
far
guy
bur@@
eri@@
United
process
il
dig@@
flo@@
end@@
looked
USA
erzählen
young
view
ad
ene
w
y-@@
nten
ang
open
often
bring
words
heard
inside
hr@@
Earth
og@@
ner@@
Me@@
aff@@
Du
Au@@
möglich
order
pro
ator
tige
within
once
dessen
inn@@
besch@@
Dar@@
-S@@
fest@@
els
einander
project
matter
fac@@
Nor@@
ders
already
Wissen
ris@@
fünf
B
sage
du@@
ack@@
genug
ice
gehört
gestellt
child
fre@@
Bo@@
Ri@@
entwickelt
wis@@
single
ziehen
zwei@@
jedes
Con@@
weit
ll@@
word
tionen
seinen
ungefähr
enz
stories
9
gar
nächsten
D
public
nothing
oren
dy
oli@@
ess
Körper
C
spielen
hope
Ger@@
community
looks
Fall
psych@@
cells
both
ban@@
Ideen
braucht
beautiful
language
60
jede
bro@@
ord@@
group
sagten
ari@@
gleich
dung
teilen
ven
read
M
weiter@@
cancer
DNA
control
keep
setzen
ihrem
wan@@
wrong
ling
led
kennen
pp@@
Planeten
col@@
ill
anzu@@
vis@@
Br@@
Ro@@
Fragen
ven@@
bisschen
Schule
ga@@
Bl@@
works
25
wunder@@
wing
night
imagine
verändern
sei
government
richtig
De@@
begann
Ex@@
fand
Meine
Mon@@
amazing
Mutter
hand@@
ns
remember
überall
Informationen
tro@@
job
äch@@
ther
species
hol@@
six
genommen
months
eg@@
ik
Te@@
billion
om
Leuten
enen
Hand@@
myself
eins
ff
ub@@
turn
test
animals
seinem
ler@@
oo@@
nature
video
couple
dan@@
Energie
States
ey
rat@@
Computer
12
steht
No@@
emp@@
wasn
ingen
lichkeit
sor@@
199@@
Minuten
CA
ism
music
Wer@@
India
Antwort
decided
0s
hear
ked
Sta@@
reden
Afrika
Ne@@
So@@
zt
minutes
ue
ear@@
lau@@
front
ched
anderes
fahren
bereits
stop
Für
Aut@@
zer@@
ischer
erkennen
head
chen@@
level
questions
iger
plan@@
bor@@
ning
kten
under
everybody
education
bra@@
nahmen
net@@
our@@
taking
places
comp@@
wh@@
Ent@@
ourselves
Bu@@
anti@@
ying
universe
gh@@
schauen
rie@@
pf@@
Punkt
Familie
state
systems
Man@@
phone
became
ore
until
students
tru@@
bevor
research
out@@
je
Car@@
tan@@
built
American
Projekt
Wi@@
fil@@
America
study
run
machte
completely
imm@@
Geschichten
Zei@@
Su@@
legen
darum
klar
La@@
ass
Lei@@
fish
besonders
sing
ang@@
piece
tel@@
ments
mother
Sti@@
happening
Gruppe
turns
gte
hours
low
isn
though
share
los@@
gar@@
Pl@@
Bet@@
ion
exactly
defin@@
dich
rec@@
woman
gung
itself
nennen
tical
Ur@@
erten
rate
s-@@
dep@@
Nein
kre@@
80
house
hab@@
ili@@
zeit
wen@@
tre@@
net
company
erreichen
model
mp@@
since
ots
sound
Dieses
ken@@
ess@@
eng@@
Sprache
Unternehmen
fan@@
friends
wel@@
musste
Ph@@
Mädchen
Po@@
To@@
Bilder
namens
Form
everyone
Natur
culture
Milliarden
best@@
Doch
somebody
benutzen
verschiedene
ales
tische
ined
gerne
Auf
Hand
sometimes
erung
Buch
ati@@
can@@
ier
century
.000
ward
ump@@
Licht
name
against
knew
themselves
ierten
poli@@
führt
euch
happy
cy
Mein
disease
pos@@
Sk@@
Macht
viel@@
Hei@@
utz@@
Rei@@
heraus@@
kinds
society
Männer
darin
Arten
neu@@
ort
kan@@
dri@@
others
stor@@
Weil
manchmal
/
gende
nung
mt
learned
cap@@
entwickeln
heart
oben
üh@@
Indien
deren
Best@@
huge
ton
soll
For@@
gleichen
ums
key
must
Augen
Gesellschaft
nte
Vielleicht
news
rather
won
game
suchen
por@@
large
Wel@@
particular
hätten
Welt@@
created
ehr@@
Oder
ausge@@
enz@@
Regierung
ändern
Design
Fahr@@
ant@@
tischen
Then
let@@
tieren
ern@@
Chris
ften
nen@@
Lebens
000
ome
spr@@
gew@@
Google
hor@@
stellung
gri@@
based
Gi@@
menschlichen
inc@@
schwer
Per@@
ath@@
tragen
ces
rop@@
sts
dig
cra@@
fühlen
Möglichkeit
pt
wn
cr@@
ect
amp@@
G
ack
Neu@@
aren
turned
Na@@
Kur@@
mag@@
figure
instead
einigen
ets
gten
God
irgend@@
ement
sm@@
Grund@@
sch
felt
couldn
gave
ically
Um
wollten
shows
Vor
,000
del@@
ür@@
Kopf
tation
schreiben
ort@@
200
ko@@
inten@@
ig
ining
erhalten
exp@@
mal@@
ici@@
ust
Sa@@
least
bas@@
thousands
chter
gebaut
lots
zed
treffen
early
aller
TED@@
ame
worked
besten
moving
Stunden
jedem
bewegen
weg
Sh@@
dem@@
Je@@
air
changed
natural
environment
berei@@
He@@
Gra@@
given
cli@@
Wissenschaft
Patienten
Bau@@
Kindern
bringt
flu@@
guys
ash@@
enten
fahr@@
Gefühl
size
wohl
überhaupt
taken
ktion
inv@@
beiden
Vortrag
verschiedenen
verändert
gan@@
third
hö@@
eig@@
Ru@@
ats
gemein@@
irgendwie
tiven
difference
Kat@@
past
father
market
mei@@
wo@@
Stu@@
pan@@
powerful
ils
ment@@
Musik
scale
learning
Har@@
ously
cities
Schul@@
far@@
verwenden
difficult
outside
gang
10@@
tal@@
Ste@@
wir@@
wahr@@
organis@@
ren@@
online
Bar@@
finally
T
,@@
entire
mechan@@
vorstellen
amm@@
wes@@
walk
ars
18@@
along
self-@@
ßt
eher
mm
common
einzige
machine
0-@@
free
paper
sho@@
pla@@
cur@@
close
O
ät@@
verk@@
behind
hoch
Sachen
Bri@@
stellte
Vater
ct
Bei
recht
Ju@@
o-@@
Angst
oper@@
wirk@@
ot
getan
teten
wal@@
nimmt
force
R
dly
Ä@@
bare
Min@@
cost
ard
sum@@
inst@@
fte
ocean
normal
Gebäude
gern
t-@@
ned
kom@@
sechs
Do
needs
ged
Or
certain
trau@@
stat@@
ls
population
met@@
Bro@@
during
collec@@
prot@@
Kar@@
isches
parents
economic
nisse
verst@@
tional
ire
a-@@
Länder
bil@@
beginnen
perhaps
team
500
pen@@
versucht
seven
yourself
lässt
cul@@
gegeben
schön
scheint
log@@
ca@@
met
oil
cell
Kor@@
media
weg@@
behavior
asse
fu@@
friend
Lage
mögen
Tiere
tried
eyes
Lin@@
ground
unden
Co@@
Hause
ected
ular
nämlich
anz@@
Is
eil
ture
takes
lösen
born
Wort
ship
rü@@
Schl@@
amount
Tra@@
U.S.
unglaublich
nis
easy
Gott
Video
sil@@
hinter
area
ian
sei@@
letzte
regi@@
gebracht
wieder@@
Eltern
gs@@
L
P
ages
kt@@
organ@@
terms
beginning
parts
black
Pri@@
simply
David
nahm
auszu@@
ersch@@
hands
full
ige
We@@
Erfahrung
whatever
dir
heiten
seeing
innerhalb
World
lesen
schl@@
Dieser
People
kamen
fanden
Glück
fly
pic@@
At
spezi@@
gre@@
Grunde
nächste
son@@
geh@@
known
tiert
leave
bio@@
voll
Gl@@
Film
stage
ane
belie@@
Sinn
mussten
cri@@
field
wä@@
mate
menschliche
nahme
innen
groß
findet
complex
Sy@@
grow
ick@@
Haus
ak
wonderful
kti@@
Hin@@
Kl@@
hren
glich
anz
mati@@
uni@@
dro@@
schließlich
Auto
Mal@@
Staaten
solche
stre@@
began
cannot
K
material
pur@@
pul@@
ka
sto@@
tically
lic@@
rest
zing
quickly
Universum
teil@@
Stück
kur@@
reality
Yeah
allem
cool
tors
tel
sam@@
companies
syn@@
Roboter
spent
opportunity
Gre@@
tisch
rä@@
realized
Kunst
wat@@
ently
Entwicklung
week
tur@@
Verhalten
obwohl
Medi@@
Si@@
humans
olog@@
itu@@
ory
woh@@
gleiche
bel
char@@
Pf@@
needed
ente
top@@
middle
clear
ei
developed
lose
herum
growth
nor@@
incredible
ater
eigene
act
poor
oh
ju@@
völlig
Publikum
ole
meines
äs@@
Ist
che@@
mem@@
economy
wär@@
areas
Stellen
gives
ähr@@
local
dete
inf@@
aut
wären
Col@@
v
death
Ziel
scht
ration
ve@@
books
ef@@
frei@@
interested
Gesch@@
gleich@@
Hilfe
lost
baren
schaften
political
eat
bleiben
Or@@
Zum
ens@@
Not
grün@@
en-@@
micro@@
stu@@
Anfang
tä@@
niemand
Dingen
chn@@
Groß@@
lieben
tz@@
alien
sitting
18
auth@@
Nicht
worden
write
Liebe
Res@@
ed@@
eth@@
ffen
Some
Gegen@@
feet
ite
animal
ball
weitere
techni@@
feh@@
dam@@
studi@@
Win@@
ager
sterben
challenge
longer
stell@@
Bel@@
0,000
vel@@
Kan@@
Lösung
Da@@
kurz
jo@@
Land@@
ren
bes
wand@@
dist@@
ht
wür@@
tut
län@@
besteht
hold
neu
Kom@@
wusste
falls
air@@
sig@@
image
ection
assen
statt
voll@@
amp
ality
uses
Wirtschaft
Spiel
Mus@@
tat
gone
jedoch
198@@
ends
John
deal
betrachten
short
identi@@
Spiel@@
ology
größte
Namen
ony
11
numbers
üt@@
unk@@
langen
Lassen
sions
zwar
unten
Tr@@
genden
Monate
either
ide@@
Woche
person@@
Dan@@
Am
ulation
forward
table
vers@@
super@@
kaufen
Ak@@
Mc@@
cing
Sü@@
ismus
set@@
Mi@@
London
eller
tions@@
step
ther@@
Tages
aler
ück@@
ins@@
wert
gro@@
tics
chts@@
ah
wahr
spend
images
Freunde
schwar@@
weeks
schle@@
tor@@
pr@@
To
ander@@
assi@@
program
value
unseres
erst@@
0.000
bin@@
fragte
eight
land@@
fo@@
av@@
Do@@
feeling
zweite
Ta@@
ser
mark@@
ir
sollen
Denken
Möglichkeiten
ope
fis@@
Yes
Rück@@
sed
Zeit@@
ffe
verl@@
stand@@
knowledge
Our
An
gefunden
Thema
lage
medi@@
spe@@
nice
cher@@
ll
Unterschied
board
bewusst
Wochen
direkt
bereit
Mars
Führ@@
70
Fl@@
zuvor
individual
Just
Durch@@
liegen
okay
grand@@
welches
understanding
average
growing
tiv
brought
kel
igkeit
ick
dlich
H
mine
laufen
attention
fest
treten
tend
Ban@@
Bewegung
biolog@@
iel@@
Ko@@
pay
ke@@
Zellen
tain
green
reg@@
generation
anyone
Mis@@
ced
leben@@
likely
risk
test@@
interessant
Autos
City
hundreds
equ@@
zü@@
buy
telling
tools
zieren
speak
Kultur
ron@@
falsch
zes
changes
&amp;
fing
map
running
erschaffen
Viele
ese
sl@@
ching
er-@@
sha@@
ads
ätz@@
vers
ths
Ku@@
Can
structure
bed
tig@@
ette
poll@@
gelernt
Tri@@
exc@@
90
Lehrer
fir@@
bat@@
digen
Ni@@
Tage
multi@@
ines
Heute
mensch@@
Ländern
teilt
giving
äre
morning
anderer
kor@@
bung
uren
film
mag
ented
scientists
mel@@
Unsere
cy@@
ash
personal
damals
ams
Krebs
ingly
Gu@@
Alles
weisen
result
Gesundheits@@
Wissenschaftler
Gedanken
genauso
X@@
creating
exist@@
testen
theory
white
alität
Lu@@
starting
mittel
Technologien
requ@@
ish
ple
Krieg
gem@@
box
rit@@
yes
gefähr@@
tik
Fähigkeit
Studenten
Technik
surface
fliegen
schrei@@
ute
ath
Gemein@@
Wahrheit
selben
ety
bs
vari@@
changing
Hel@@
climate
erinnern
Selbst@@
On
arbeitet
patients
access
millions
beg@@
gingen
sehe
rise
Essen
form@@
cars
cop@@
Stimme
fied
Gol@@
äh@@
unde
brei@@
deta@@
Tatsache
Ihren
bitte
prof@@
ists
illi@@
vo@@
Herz@@
technologies
ators
sea
discovered
my@@
ta
vision
hier@@
Nacht
national
law
liebe
sicher@@
tic@@
brachte
girl
seems
cer@@
16
audience
Besch@@
blue
died
schw@@
igen
movement
ium
st-@@
Anzahl
halb
forms
plan
ion@@
Reihe
glücklich
miteinander
ost
wrote
allow
gene@@
Com@@
source
bli@@
yp@@
auen
deep
ans@@
Ges@@
chem@@
Teil@@
fü@@
Modell
cut
ender
au
esen
alte
ierung
arm
developing
geworden
kes
iges
wouldn
ements
fig@@
ow
English
größten
Right
sive
innovation
issue
Ken@@
gewal@@
daraus
recently
erzählt
usion
playing
E
bul@@
fun
bekannt
arten
dark
Mensch
gaben
wachsen
seh@@
Wil@@
Jeder
chi@@
zus@@
fri@@
enth@@
bottom
Dr.
fäl@@
Hy@@
HIV
ures
lang@@
Lehr@@
hast
watch
alone
available
len@@
danach
ition
moved
Sehen
bist
1,@@
bilden
Nach
denkt
asking
kin@@
Gesundheit
gewesen
ös@@
Luft
enter@@
nal
sli@@
schlecht
Super@@
soon
sin@@
tei@@
anden
direc@@
realize
sam
Bes@@
schul@@
guten
passieren
lungen
Christ@@
ücke
seln
produce
Mot@@
ink
Jahrhundert
voice
literally
schrieb
hervor@@
Schritt
hält
sieben
perfect
patient
ignor@@
une
Aufgabe
bau@@
analy@@
bom@@
Team
unger
mittel@@
zeige
Natürlich
Fil@@
stark
Ihrer
medical
ants
leicht
entlich
visu@@
Am@@
center
verbunden
nachdem
F
impact
designed
sters
ley
dat@@
erg@@
chan@@
Gemeinschaft
solve
gegen@@
Mikro@@
fy
eit
prä@@
nü@@
Ben@@
bigger
save
Gleich@@
möchten
ange
tly
tivi@@
putting
All@@
Prozess
oten
South
egal
kid
cle@@
Deshalb
hel@@
cu@@
fully
Fel@@
schie@@
gezeigt
Bei@@
Verbindung
support
Bildung
entation
kleines
Tran@@
perc@@
Rolle
nis@@
Mor@@
Von
plat@@
ra
fru@@
Afghanistan
yed
dou@@
richten
draußen
ands
product
verloren
funktionieren
leg@@
holen
ght
relationship
enor@@
300
ards
mache
tiv@@
Sto@@
issues
plötzlich
anfangen
ich@@
f-@@
hoch@@
Zahl
vie@@
schau@@
expres@@
Kinder@@
knows
ina
showed
15@@
Pa@@
modern
deten
Desig@@
ett@@
Tatsächlich
jemals
robot
ann
ral
Freund
erklären
Dro@@
Ele@@
ade
positive
Größe
Vi@@
erreicht
uss@@
Revolution
not@@
coun@@
äus@@
repres@@
ität
development
Det@@
Boden
produc@@
don@@
term
fron@@
incredibly
krei@@
Hum@@
becomes
evidence
ständig
200@@
Muster
gere@@
kri@@
physical
Bas@@
gens
schwierig
bal@@
führte
Wer
aufzu@@
bot@@
comm@@
seem
late
Psych@@
glück@@
eben
cat@@
Herausforderung
absolutely
lines
drei@@
elec@@
beginnt
Lo@@
solution
lab
Maschine
Fol@@
fallen
produ@@
squ@@
tungen
sel
Fre@@
cket
pol@@
Haupt@@
Reise
ive
glichen
setzt
color
verb@@
plant
Vorstellung
wech@@
Beh@@
Poli@@
Kü@@
fern
impro@@
ared
grü@@
mot@@
Vol@@
rief
connec@@
opp@@
sau@@
ehen
hon@@
machten
yer
ace
fli@@
non-@@
ros@@
steh@@
conc@@
digital
Teile
wish
ek
erk@@
geboren
für@@
spiel@@
Ihrem
Kraft
läuft
0ern
Ser@@
Richtung
chance
street
reasons
mission
resources
schn@@
soziale
Amerika
Vereinigten
pictures
neh@@
üs@@
gros@@
ba@@
pass@@
zer
zin@@
posi@@
seite
focus
haven
stru@@
writing
spar@@
worth
Krankheit
wichtige
Generation
groups
Einige
position
ument
eting
Alle
AIDS
spricht
Fran@@
fro@@
Arbeits@@
zw@@
ogra@@
Firma
Hey
Labor
schri@@
fear
Jahrzeh@@
choice
ologie
weltweit
major
zellen
Dis@@
verwendet
ton@@
high-@@
begin
nein
zehn
especially
Forschung
thes@@
cle
tlich
dachten
class
bekam
Bedeutung
quality
lea@@
tual
ep
demon@@
schaft@@
miles
ended
mitt@@
ions
vir@@
stelle
tnis
lived
acc@@
gele@@
Straße
gesamte
esc@@
ero@@
nam@@
ensch@@
sofort
voller
gli@@
elte
main
chern
appe@@
hundred
prin@@
Schauen
oms
sonst
acy
nachdenken
West
industry
-B@@
beyond
Ad@@
action
predic@@
hör@@
Europe
Meinung
Platz
ency
wall
on-@@
ol
vent@@
onto
tin@@
zz@@
Computer@@
ects
jemanden
brau@@
entfernt
optim@@
listen
type
break
hinter@@
jen@@
geschrieben
einzu@@
Studie
potential
Chinese
strong
lebt
Flug@@
gesprochen
Veränderung
od
deshalb
ong
Krie@@
speci@@
shape
Schi@@
Lie@@
gegenüber
neues
Pal@@
cir@@
bekommt
kehr@@
By
gän@@
aussehen
sahen
Information
similar
umen
Ster@@
massive
dungen
pat@@
situation
wach@@
several
sted
itäten
frage
spro@@
teach
special
tau@@
Afri@@
message
Richard
ami
anybody
Kop@@
tief@@
def@@
ce@@
Stand@@
With
tells
girls
human@@
Wert
ome@@
ennen
happiness
security
blood
niemals
mass
Zwei@@
Sei@@
ann@@
hour
journey
Zahlen
ably
rap@@
fel@@
After
guess
reach
meet
aben
Entscheidungen
develop
network
Wal@@
stellten
present
truth
sy@@
drugs
Realität
Gewalt
ologen
software
ppe
Wasser@@
genannt
cked
drive
Mag@@
chti@@
loc@@
Gel@@
El@@
eye
sequ@@
interessiert
carbon
hum@@
involved
stimmt
komp@@
ani@@
bewegt
extremely
My@@
stoff@@
ital
$
Nur
cal
Tur@@
atz
violence
gekommen
Every
iken
hört
Hoffnung
doc@@
Daten@@
lin
National
sent
befinden
serv@@
pped
Umgebung
talked
fal@@
mäch@@
acht
Städte
ütz@@
gene
experiment
hit
thank
Musli@@
Austr@@
eck
ären
Frei@@
ror
mus
ey@@
dead
gend@@
Während
sens@@
hoffe
tag
ences
was@@
gearbeitet
Ergebnis
nennt
formed
tle
24
del
hielt
Where
Selbst
schi@@
Beziehung
aps
geführt
197@@
schreck@@
Funk@@
Fähigkeiten
beste
din@@
ize
gemeinsam
sprach
Pe@@
results
müs@@
back@@
amen
Fin@@
benutzt
heits@@
mes
eless
lern
Mil@@
cking
Europa
War@@
Meter
mani@@
The@@
digit@@
explain
besu@@
hän@@
geschieht
effect
Sicherheit
erin
13
Des@@
histor@@
tiny
active
send
Tod
computers
device
On@@
Bevölkerung
alis@@
aufge@@
welt@@
Ki@@
aging
wie@@
lieren
sounds
ills
zen@@
weren
nuclear
office
ction
Struktur
minute
Tro@@
tex@@
materials
Japan
bleibt
cker
ya
zeu@@
road
object
Entwicklungs@@
spec@@
dert
approach
finde
allein
Maybe
Mu@@
Of
ories
Karte
ready
memory
First
Situation
Mitte
zerstör@@
Proz@@
Hälfte
inger
links
enn@@
teachers
Gesicht
herauszufinden
daher
lead
erle@@
Demokratie
enzen
international
komme
largest
Kol@@
ücken
programm@@
ät
democracy
Schn@@
Medien
Preis
poverty
edi@@
meter
Kre@@
Sonnen@@
lte
han@@
länger
connected
dest
fangen
vorher@@
nei@@
zieh@@
ziert
tigt
stron@@
Mitgefühl
Erfolg
yers
gres@@
ature
bessere
ense
alized
az@@
Wis@@
certainly
Look
jobs
clos@@
letz@@
formen
Son@@
Den@@
tively
Pap@@
spi@@
richtigen
wants
punkt
zo@@
tik@@
chtig
ide
cas@@
everywhere
Cor@@
sim@@
alist
größer
inspi@@
Wa@@
ise
sun@@
bank
Bereich
licht
14
schools
nine
mos@@
rich
scientific
00
Don
plants
meaning
mme
grundle@@
pain@@
tzlich
gegangen
od@@
examples
kop@@
kämpfen
code
cies
begannen
meas@@
ähnlich
basic
projects
compassion
smart
spra@@
Geb@@
ily
student
Können
absolut
dent
osp@@
leaders
fort@@
rules
brains
creative
baby
ny
outh
particularly
named
mut@@
zah@@
store
passi@@
drug
ble@@
stoff
interest
Wür@@
Hoch@@
door
fühlt
statt@@
medicine
pattern
Vir@@
ember
Kosten
Eis@@
fr@@
Rest
Rau@@
sozi@@
viol@@
activity
Ti@@
gh
kleiner
ners
continue
taught
versuchte
gedacht
pac@@
Los
Dem@@
cha@@
glob@@
ana
Ant@@
Mei@@
list
Sol@@
üb@@
genen
nete
Schulen
evolution
führ@@
kol@@
dge
dd@@
recei@@
Erd@@
higher
Pan@@
tim@@
mental
lok@@
Hol@@
Studi@@
gesetzt
tigkeit
Alter
aw@@
nobody
finding
schein@@
obviously
wit@@
ational
hom@@
komplett
nation@@
among
towards
get@@
tens
sex
lle
Sonne
provi@@
thre@@
fall@@
recor@@
klein@@
Krankheiten
herum@@
Bal@@
ump
vol@@
Dok@@
asst
orig@@
Ding
disc@@
hy@@
brechen
spielt
schneller
Markt
exciting
cause
sorts
starts
det@@
games
Kunst@@
Wahl
pieces
speed
ow@@
ank
notice
biggest
amerikanischen
Material
total
Mat@@
whe@@
Nutz@@
one-@@
Nachrichten
junge
ützt
period
ately
dence
darf
typ@@
camera
teacher
solar
reis
ähn@@
communities
ließen
iel
Bücher
thers
bet@@
Del@@
istic
treiben
cover
measure
Foto
consum@@
At@@
including
North
Grenzen
Tex@@
to-@@
passierte
wil@@
town
Armut
tures
»
bestimmt
ihres
row
kill
studies
richtige
abzu@@
Kontrolle
anstatt
bran@@
safe
«
technolog@@
al-@@
Ker@@
hinaus
schließen
sit
Theorie
supp@@
ön@@
bald
einfache
Oberfläche
Gruppen
vorher
beide
forest
gleichzeitig
she@@
gas
attra@@
War
insi@@
pu@@
standing
Ros@@
bodies
zul@@
gewinnen
beobachten
showing
sitzen
aria
Facebook
nan@@
lies
Wol@@
plac@@
minds
lar@@
training
ret@@
zuerst
process@@
hu@@
ate@@
sug@@
traditional
sozialen
TV
meant
150
region
Fehler
möglichen
walking
aufen
selbst@@
older
bestimmten
fantast@@
aden
12@@
rest@@
experim@@
individuals
lower
Off@@
will@@
month
Zu
Pot@@
tives
success
extraordinary
models
Char@@
East
Sym@@
spread
fight
trees
196@@
bieten
pra@@
University
Körper@@
zent@@
hl
ließ
Spezies
conver@@
sou@@
Sig@@
erhö@@
win
Eines
wind
kar@@
ele@@
Bill
follow
wider@@
but@@
Job
totally
Regeln
erwäh@@
general
arbeitete
self
As@@
Another
volle
größ@@
Einfluss
Innovation
wichtiger
aller@@
uments
clin@@
tar@@
part@@
Blick
großes
vergessen
Bab@@
revolution
ändert
Wo
verbessern
doctors
Iran
tex
educ@@
wann
ax@@
setz@@
werfen
versuche
fundamental
add
moder@@
geri@@
taten
A-@@
appro@@
crisis
wussten
folgen
service
contro@@
öff@@
ollen
trägt
expect
Erfin@@
verstanden
invest@@
stay
goal
worse
Aufmerksamkeit
Wor@@
lex
initi@@
role
complicated
perspective
virus
Fr@@
Geschäfts@@
passen
nu@@
isch@@
version
cultural
lec@@
extra@@
Wohl@@
Imp@@
objects
ca
scher
iker
kannst
Kli@@
frie@@
tot@@
Monaten
lö@@
45
essentially
range
que
song
Sel@@
halt
screen
eventually
zeichnet
mist@@
conversation
fort
price
Fe@@
globalen
drücken
collabor@@
Ac@@
arch@@
Gri@@
35
foot@@
ited
kers
inner
antwor@@
Not@@
schnitt
Ho@@
ätze
diag@@
dige
Amerikaner
bau
photograph@@
England
schlä@@
griff
tain@@
stim@@
großer
bedeut@@
response
Einzel@@
reich
prü@@
movie
village
head@@
tiger
Tre@@
wäl@@
Charles
erzeugen
err@@
loo@@
Today
kn@@
sun
ansehen
Met@@
electricity
verlieren
leu@@
Tal@@
lege
verse
Pil@@
danke
high@@
tom@@
Anderson
ological
reichen
favorite
continu@@
geln
Beispiele
ables
chtigkeit
kennt
Geheim@@
ensi@@
Tier@@
Op@@
yl@@
Ö@@
Far@@
blind
oot
wed
gefragt
sec@@
Even
Chance
blin@@
stieg
tool
Go@@
killed
ermöglicht
hat@@
imag@@
lied
utes
male
Sicht
effek@@
further
sicht
allows
kra@@
produzieren
ney
Woh@@
ession
17@@
glei@@
moral
N
police
serious
posed
eigen@@
successful
elling
emplo@@
suddenly
Most
Por@@
dream
sal@@
San
licherweise
ecting
non@@
lex@@
explor@@
Wirklichkeit
lim@@
Gro@@
osen
Which
U.@@
unch
ford
loss
langsam
ops
füh@@
choose
bit@@
ered
Regierungen
yle
Zugang
di
oud
effective
dreht
organization
func@@
eht
äm@@
versi@@
enter
radi@@
foot
Sau@@
sti@@
shot
private
Bühne
Kap@@
pick
abhän@@
ried
reading
thousand
cases
gesamten
usually
lon@@
ances
hilft
verlassen
vier@@
Ergebnisse
schlie@@
aussieht
exist
tö@@
archit@@
400
series
ett
chtet
1.@@
dau@@
respon@@
entscheiden
bridge
Bü@@
Evolution
upon
toll
context
wide
irgendwo
wert@@
anywhere
bemer@@
frü@@
schaut
äume
bestimmte
bacteria
econom@@
doctor
eff@@
sodass
haft
ama
liert
connect
Schw@@
tree
ption
Ra@@
crazy
anschauen
Medizin
machines
Zusammen@@
ering
increase
hing
Orte
Dre@@
schlagen
pflan@@
Schüler
Mü@@
ada
orts
Ingenie@@
Gest@@
Americans
Nachricht
site
mathemati@@
Schu@@
traf
yo@@
Tat
wife
dance
stars
buildings
Who
Oper@@
einzelne
zeichnen
herr@@
protect
halte
2000
Can@@
öl@@
Dien@@
achten
nö@@
impossible
ial
combin@@
cles
Washington
Galax@@
sky
income
van@@
consider
faces
Konfli@@
Meeres@@
Inst@@
handelt
Politik
Michael
talks
allowed
Künstler
Pflanzen
cla@@
Stelle
rin@@
Är@@
Mark@@
domin@@
endlich
neurons
supposed
Radi@@
cele@@
tere
See
engineering
glaub@@
brauch
Studien
ations@@
funktion@@
mung
Genau
Gerät
redu@@
tliche
search
Papier
tert
zustellen
boy
please
ight
Vo@@
astrop@@
teile
Orten
sü@@
thro@@
versor@@
wissenschaft@@
niedri@@
icht
above
yeah
bs@@
kept
zeigte
rights
utter
alive
Umwelt
eption
Daher
Web
publi@@
truly
tun@@
shown
Seiten
Kin@@
trä@@
schafft
forming
fine
Prinzip
gers
mitteln
points
nost@@
calcul@@
na
treatment
nachzudenken
mals
0er
peace
ograph@@
Sal@@
grew
architecture
hörte
hot
Programm
heim@@
sustainable
robots
sleep
somehow
hop@@
physics
Are
Menschheit
Stra@@
Universität
außer
sowohl
fire
winden
MIT
ord
date
sicht@@
abhängig
minist@@
larger
record
dre@@
Neuro@@
ulti@@
fällt
Personen
acks
fel
Indi@@
Gem@@
watching
lag
bte
Atom@@
17
Ü@@
künst@@
Kollegen
asen
deine
himself
expensive
rän@@
page
swe@@
Sohn
Fak@@
Produkt
waste
Auch
kap@@
Haus@@
dur@@
extrem
Gut
kel@@
Uni@@
med
trieben
wendung
Kä@@
Uhr
Gebiet
Wirk@@
Kohlen@@
gn@@
pe
reflec@@
fic@@
emis@@
Ebene
trotzdem
recognize
Pat@@
igkeiten
offensichtlich
written
sting
industri@@
Instr@@
Ärzte
unmöglich
zweiten
spre@@
val@@
Arbei@@
Typ
Kapit@@
satz
bunch
critical
Konzept
beings
ze@@
befindet
abel
etz@@
products
somewhere
tit@@
ming
driving
gest
lagen
att
retten
Damit
betrachtet
skin
pleas@@
smaller
four@@
guter
ppen
feld
indeed
Wirtschafts@@
pfen
Sen@@
Prä@@
Mos@@
steigen
ous@@
Verk@@
gyp@@
Sinne
essi@@
alism
wirken
pping
ref@@
activ@@
priv@@
aur@@
skills
Ressourcen
zig
sammeln
ired
transpor@@
Paul
Invest@@
vely
solchen
wood
span@@
mein@@
Designer
Recht
erleben
George
therap@@
weight
bir@@
dlichen
down@@
pil@@
gent@@
ligh@@
ing-@@
Wachstum
mmen
W
caus@@
feed
bing
soci@@
ough
grade
exper@@
hab
Flü@@
Gene
zieht
eiten
Ozean
begr@@
entdeckt
tan
zep@@
herstellen
zumindest
kul@@
Ap@@
heutzutage
Gehirns
Gehirn@@
sches
rank
innov@@
ordin@@
Chi@@
James
ussion
cal@@
Mas@@
erlaubt
suff@@
hospital
autom@@
tains
welcher
operation
heben
ation@@
loved
emotional
arbei@@
atur
Anti@@
wards
chnungen
oth
Fi@@
ritte
cke
unded
näher
fühlte
Vergangenheit
ald
Fotos
Hau@@
blick
Sha@@
liber@@
ential
riesige
funny
vice
wait
wählen
Israel
schlag
geschehen
smo@@
sing@@
warten
healthy
mark
worfen
uss
teilung
Energie@@
advan@@
einf@@
faster
ester
Im@@
ologists
stic@@
famous
altung
families
specific
chemical
gek@@
keiner
seconds
Erwachsen@@
Systeme
ape
Gar@@
einz@@
wonder
Pra@@
three-@@
Arab@@
streng@@
Sim@@
überrasch@@
ran
schwi@@
career
ull
treat
Antworten
website
provide
Oze@@
clu@@
Menschen@@
frei
Hom@@
Beru@@
ingt
Lit@@
Meer
DN@@
wah@@
performance
gewis@@
Betra@@
Köni@@
sit@@
hundert
decade
toren
Rom@@
sten@@
Umwelt@@
Suche
production
Herz
Worte
rieben
oods
Fot@@
lten
neben
Dorf
capit@@
ells
normalerweise
zogen
ehr
Jo@@
Öl
arg@@
Spaß
legt
kultur@@
zäh@@
Unterneh@@
izi@@
Experiment
endes
diejenigen
rein@@
intelligence
throughout
geschlossen
Prot@@
untersuchen
Produ@@
college
trust
diversity
aufre@@
Any@@
Those
policy
invol@@
erzäh@@
remarkable
Wege
B.
sä@@
ände
klein
kaum
Zeitpunkt
Wohn@@
biology
Gesprä@@
governments
utz
gic
-year-old
Jahrhunderts
fertig
aware
Like
diseases
rist@@
zimmer
dadurch
Tier
nenne
erzählte
inclu@@
gin@@
gender
manche
faszinier@@
expla@@
ild
komplex@@
cru@@
cou@@
complete
practice
perfe@@
becoming
Einer
ategi@@
ameras
Bakterien
Hor@@
ush@@
greater
spreche
ought
near
schöne
ül@@
pain
touch
progress
institu@@
rechts
Es@@
audi@@
actions
tech
Sekunden
tausende
star
nel
Formen
Hu@@
asche
Firmen
magic
ckt
Haben
From
lad@@
Gedi@@
solutions
kön@@
maßen
adap@@
Bewusstsein
einzelnen
äuß@@
matic
oun@@
Robert
icial
ye@@
sour@@
bus@@
ized
visual
cros@@
interessan@@
mach@@
dangerous
eben@@
paid
ats@@
ech@@
chtes
ore@@
conditions
struc@@
schützen
terrible
stän@@
dom@@
frequ@@
Sor@@
inj@@
kit@@
costs
actual
except
atten
genes
Vorstell@@
grupp@@
travel
Methode
institutions
Architektur
Familien
2008
ritten
gesell@@
Ordnung
ky
trag
fres@@
Steve
African
legs
asch@@
artic@@
Verständnis
nachhal@@
ativen
levels
desto
vit@@
physi@@
Sex
Ol@@
Tit@@
thetic
Schwar@@
2007
era
techn@@
einfachen
Flu@@
altet
concept
Tagen
verstec@@
CO2
dunk@@
berg
Behandlung
pal@@
dest@@
Verantwortung
bat
unique
tät
aptop
Tie@@
sequence
195@@
low-@@
listening
gency
Schrei@@
clo@@
asp@@
Mittel
samm@@
September
press
familiar
re-@@
umin@@
web
oss
öffentlichen
tin
Straßen
Auswirkungen
spek@@
Fa@@
Objekt
Rest@@
entlichen
draw
ulate
elten
Wieder@@
ufen
nutz@@
anischen
wenige
Mittel@@
rooms
Ori@@
entdecken
thern
moral@@
greatest
clearly
deli@@
sell
kas
designers
stro@@
natür@@
dritte
großarti@@
Kal@@
dependent
gewöhn@@
raten
lig
Bezug
whose
Linie
direction
individu@@
and-@@
kat@@
emer@@
Dru@@
grö@@
Bon@@
negative
west@@
messen
Don@@
km
amer@@
Mathematik
School
keits@@
üben
Blo@@
Times
Ris@@
arbeite
in-@@
öffnen
gehe
billi@@
Pu@@
essen@@
aks
transp@@
path
ending
subject
Bra@@
Geist
veränder@@
Kri@@
final
resear@@
military
Gründe
terror@@
Lö@@
erstaun@@
Ob@@
behaup@@
Mr.
ury
Sar@@
unglaubliche
leisten
patterns
possibly
current
Monat
Ox@@
mess@@
zentr@@
ahead
stem
dec@@
decades
Your
repor@@
function
forth
Einstein
Organisation
häu@@
path@@
lebens@@
Mach@@
aufgrund
mig@@
desig@@
spür@@
hear@@
Software
Auge
teil
bili@@
nahe
inner@@
alt@@
drop
floor
answers
eigenes
various
mation
Farbe
rier
agree
etzen
eding
recogni@@
handeln
weis
för@@
schluss
accep@@
Himmel
seines
jungen
großartige
quar@@
conflict
fair
beauty
sation
Medikamente
Interesse
Zustand
Cy@@
cen@@
akzep@@
Nat@@
mehr@@
Netzwer@@
Gesetz
Hände
sionen
ade@@
Park
Geh@@
int
well-@@
Nummer
stung
Nahrung
schicken
liter@@
alter
tem@@
Erfahrungen
Wo@@
adem@@
Finanz@@
einge@@
entrepren@@
sharing
aid
hängt
gst
sent@@
Cha@@
obvious
therefore
fassen
urban
pros@@
math
earlier
reduc@@
babies
financial
humanity
Brü@@
außergewöhn@@
zug
Pol@@
Jedes
kürz@@
surpris@@
invented
Bürger@@
dynam@@
designer
work@@
traum
fic
poin@@
programs
elles
abstra@@
kli@@
print
Lösungen
Ka@@
meters
digung
digt
willing
durchschnit@@
attack
herausfinden
artist
Sam@@
GP@@
Proje@@
übrigens
Museum
abor@@
ok
bot
Chin@@
ahn
ake
Artikel
läu@@
raise
bees
power@@
geschah
Glück@@
schön@@
dischen
West@@
markets
walked
Sicher@@
Jobs
rau@@
disappe@@
Sie@@
entweder
text
Morgen
clim@@
religion
kill@@
gkeit
improve
reich@@
content
ächst
reduce
kraft
iet
nern
offen@@
molec@@
Unser
Imagine
formation
park
reach@@
Arzt
Q@@
alismus
folgt
lernte
sat
Internet@@
entscheiden@@
Westen
rat
deu@@
eter
iete
lebte
Arbeit@@
cial
Eigenschaften
anymore
Zwei
außerhalb
hil@@
cent@@
vern@@
helped
Dec@@
excited
wonder@@
Landes
merk@@
verbinden
Liste
art@@
played
gol@@
wichtigsten
Schei@@
MS
Atlan@@
raus
erfahren
Jungen
Du@@
eness
Natur@@
schlechte
journ@@
omen
travel@@
kil@@
Verfügung
tum@@
emerg@@
existiert
anda
neun
recht@@
Noch
atory
Some@@
teaching
passion
motiv@@
fuel
immediately
by@@
descri@@
evol@@
Raum@@
größere
barkeit
swi@@
tis@@
erklärt
elli@@
ilfe
drehen
behavi@@
schnit@@
fantastic
zahlen
abili@@
waiting
Tieren
vermei@@
cold
shar@@
dasselbe
stoffe
genetic
Million
event
geschaffen
strug@@
less@@
comput@@
Vier@@
Mensch@@
le-@@
erfolgreich
slow
S-@@
attle
thei@@
divi@@
fähig
hinein
ful@@
Religion
fundament@@
Stim@@
Harvard
colleagues
hinzu@@
conven@@
Cl@@
rank@@
explo@@
Erstens
ge-@@
umente
correc@@
ood
afen
swit@@
Whi@@
inen
extra
99
voc@@
secret
25@@
ham
zeug
related
schnei@@
square
interessante
pel
consider@@
urch
Wit@@
connection
3D
challenges
ric
druck@@
umzu@@
ution
Sin@@
Pla@@
ösen
effizi@@
getroffen
Entscheidung
Zeiten
1.
Kampf
ware
enormous
Stamm@@
Manche
ray
erwarten
phones
particip@@
Vide@@
mehrere
Nan@@
spl@@
2010
Vort@@
Cam@@
Nahrungs@@
rund
Instead
stecken
US-@@
societies
qui@@
Leben@@
acting
Werkzeuge
wri@@
pull
jemandem
öffnet
eist@@
commit@@
ening
speech
sem@@
Som@@
usi@@
entschieden
interpre@@
wün@@
stick
addi@@
600
Strom
lands
Ök@@
race
dein
ca.
curi@@
sion@@
following
unterschiedliche
wass@@
decisions
Bev@@
bia
track
passt
real@@
zeit@@
Männern
gliche
nehme
gste
Mut@@
fälle
aktu@@
Emp@@
Bedürf@@
ehe
cut@@
surro@@
chter@@
freedom
Veränderungen
essed
wers
pair
Ke@@
fühle
Al
dog
esse
mile
führung
Wand
plastic
Mär@@
Adam
shel@@
Thomas
Leidenschaft
Ter@@
virtu@@
Risiko
einzigarti@@
Beginn
cel@@
ebenso
lehr@@
ebenfalls
values
chines@@
Blut@@
Professor
responsibility
vorbei
crimin@@
mod@@
birds
evolution@@
vollen
mamm@@
recent
summer
tz
Versuch
surprising
wenden
tief
encoura@@
höch@@
verhalten
gotten
verkaufen
Worten
Hunder@@
Bot@@
mil@@
dents
besondere
gutes
schätzen
arri@@
Syn@@
ile
lam@@
Dep@@
chron@@
Informa@@
spon@@
Organ@@
heutigen
radic@@
fur@@
Eff@@
chtung
alle@@
feels
band
Fuß@@
ices
Freiheit
Netzwerk
sex@@
train
aly@@
Nigeria
station
Stunde
Disk@@
unglaub@@
Swe@@
liz@@
derung
globale
Organis@@
zunehmen
teste
degrees
emo@@
crow@@
seemed
uri@@
euer
ehrlich
Kamp@@
bild
Grad
main@@
esti@@
Än@@
scre@@
emotion@@
ologist
agt
chs
scientist
Ir@@
Krei@@
daten
tivity
apped
transpar@@
prob@@
Mich@@
xes
Bur@@
fragt
Glauben
sign
politics
infrastructure
stände
lab@@
ha
Angeles
Projekte
survive
noticed
effects
verrückt
cker@@
früher
Kamera
fas@@
worst
dness
iled
explore
temperature
flie@@
dollar
Statist@@
original
ermöglichen
John@@
sible
legal
construc@@
Chicago
Netz
flying
verr@@
fle@@
uring
core
schönen
werk
einzigen
orien
streets
entieren
ind
Ange@@
Maschinen
tivität
einfach@@
Manchmal
choices
lets
ungspro@@
kämp@@
nd
Vergleich
Beziehungen
zusehen
ases
nissen
tischer
Städten
citizens
brauchte
Licht@@
Stan@@
hun@@
Span@@
evolved
Ober@@
weite
shared
Eis
erzeugt
dimen@@
stimm@@
bed@@
ante
slightly
fuhr
bü@@
lek@@
kompliz@@
Wur@@
Wörter
Solar@@
Medikam@@
Plan@@
geschichte
persön@@
ony@@
val
increas@@
ading
spru@@
sprech@@
agri@@
Freude
Teilen
welt
wid@@
biological
inspired
Bäume
echt
bisher
decide
deep@@
dom
Arm
broken
YouTube
Energi@@
party
itat
Western
glaubt
mostly
intelligent
anten
entfer@@
träge
eds
ee
Letz@@
held
Reaktion
sus@@
älter
Erzäh@@
classi@@
Wh@@
suggest@@
flow
jene
lling
pot@@
sobald
Region
destro@@
Zeug
schli@@
keln
ai
unden@@
Many
cise
Unterstützung
two-@@
published
haf@@
hole
einig@@
Physi@@
eur@@
Jede
besser@@
block
mean@@
decision
bemerkens@@
Freunden
hart
größeren
ual
atmosphere
dische
hielten
boys
Mom@@
fs@@
mitten
Typen
TED-@@
änder@@
symbo@@
samen
ghts
dien@@
Sub@@
entwickelten
Think
reagieren
assung
laws
birth
Blu@@
beeinflusst
television
pressure
mom
Punkte
ish@@
aged
anthrop@@
chnung
proper@@
Eth@@
roman@@
scan@@
cro@@
stration
alia
Islam
neuro@@
anyway
konzentrieren
erz@@
milli@@
werte
osystem
environmental
relevant
gehalten
Name
fängt
sucht
produziert
dit
useful
tou@@
brachten
runter
lau
zy@@
glie@@
kosten
stimmen
hi
überleben
ples
edge
rup@@
Jos@@
services
grund@@
tron@@
Two
planets
frühen
popular
after@@
agre@@
bewe@@
Wunsch
ahmen
heat
haltung
pounds
erinnere
confi@@
forget
ala
wild
unterstützen
standard
z.B.
Mir
Problemen
ush
erfor@@
speaking
ites
Dra@@
Plast@@
dent@@
Paris
onate
mü@@
21
geschafft
transl@@
begonnen
achieve
push@@
central
His
missing
kostet
understood
instance
helping
Les@@
rieren
turen
tal
zun@@
lights
kommen@@
unterst@@
oceans
magne@@
ologe
aking
uten
enced
atom@@
fit
Büro
leadership
enheit
Steu@@
Gesellschaften
zeuge
Materialien
types
rechte
aper
gebe
ours
ih@@
äd@@
stär@@
erfunden
iegel
daughter
corner
cour@@
verkauft
wör@@
spiri@@
bon@@
s.
ve-@@
Wow
chs@@
Wider@@
Gew@@
wher@@
Druck
alls
Nord@@
Prei@@
ule
sh
manufac@@
Gal@@
Wesen
wand
task
sichti@@
relationships
argument
wur@@
verwand@@
verbringen
tremendous
though@@
ug
meeting
Spitze
address
fun@@
Center
tungs@@
freien
glo@@
although
Big
dad
fügen
Kranken@@
indi@@
produced
Kontin@@
Em@@
nose
fragten
Pop@@
arbeiter
alization
turning
erlauben
flex@@
plom@@
sym@@
Fort@@
behandeln
Hot@@
senschaf@@
krie@@
ority
D-@@
schei@@
10,000
quick
neten
Frie@@
Traum
asi@@
exten@@
Verl@@
Pre@@
Fü@@
nation
Quad@@
wesen
Werte
usual
angefangen
expected
applic@@
Twitter
Bitte
causes
auer
Plan
Rede
discover
New@@
states
Gelegenheit
ossen
mobile
twice
Indian
schwier@@
asks
directly
ument@@
glass
ama@@
members
k-@@
Fenster
equal
clean
calls
hot@@
sogenan@@
Yor@@
Geschwindigkeit
ursprün@@
female
Pakistan
Tel@@
Universums
capital
bewer@@
carry
herzustellen
steigt
vering
wa
Obama
jährigen
capacity
ression
baut
politischen
reifen
Feu@@
sand
stopped
rain
mol@@
kontrolli@@
Web@@
entschied
senden
Luft@@
betrifft
Wat@@
00@@
Tür
window
ographic
&apos;@@
offen
Klima@@
gan
Durch
raum
rechten
eating
laden
rou@@
ail
riesigen
täglich
Virus
corpor@@
behandelt
elektr@@
großartig
gal
differences
rech@@
complexity
grei@@
oxygen
wächst
veröffentlicht
Chem@@
Gefühle
wasser
bis@@
California
uns@@
health@@
ols
resist@@
Spr@@
16@@
ressed
alisierung
sowie
fung
dar
push
jün@@
Tochter
keiten
Infrastruktur
aster
Geschäft
tons
erf@@
symmet@@
schaff@@
zur@@
atives
Filme
below
ank@@
strange
satelli@@
flies
lief
sensi@@
Ern@@
ires
Boston
lear@@
dreams
dorthin
dum@@
stran@@
para@@
ility
communicate
charge
purpose
weiterhin
slide
Life
smar@@
Che@@
erforschen
ison
fiz@@
experiences
email
dy@@
long-@@
kenne
closer
imagination
Produkte
conf@@
V-@@
efficient
Kno@@
atter@@
reve@@
ain
trifft
wart
wr@@
beschäf@@
Zah@@
dying
konzent@@
trin@@
Ahnung
workers
leg
auft
losen
philosoph@@
leist@@
Junge
farmers
n-@@
nearly
chair
quote
van
genutzt
necessarily
Dort
politische
fasst
sat@@
alternative
fix@@
Position
introduc@@
amin
Denk@@
pet@@
Francisco
eas@@
Opfer
medizin@@
forces
gilt
Red@@
drin@@
pack@@
Fernseh@@
const@@
gin
weis@@
bus
democra@@
Unterschiede
2009
1,000
spiel
entdeck@@
lik@@
indic@@
achie@@
Bus@@
Herzen
lie
mage
limit@@
depres@@
ries@@
Verbindungen
Krankenhaus
expec@@
cept
Na
fund@@
verfüg@@
tie@@
groß@@
flü@@
äten
rational
Atmosphäre
spending
Juli@@
Zw@@
nur@@
custom@@
suche
unge@@
check
fication
iness
Bildern
Hir@@
stes
rum
Gefängnis
lebten
schafts@@
ring
Klimawandel
Kilometer
iti
Berei@@
popul@@
engage
lli@@
supply
fying
soli@@
bringing
ennt
vil@@
Wes@@
akes
rufen
rück@@
nä@@
hydro@@
itz@@
load
Nähe
tritt
vention
Musik@@
chec@@
kun@@
comfortable
Hil@@
cho@@
ective
pap@@
Abend
Science
Sind
Hü@@
Einkommen
Ansatz
zusetzen
urt
aufgenommen
op
bert
recy@@
potenti@@
stag
Freund@@
gem
afrikan@@
alog@@
ele
leid
wirkt
E-Ma@@
Jer@@
spei@@
apply
engine
unbedingt
gement
notwen@@
figured
Schönheit
Öl@@
holt
ograf@@
verdi@@
0
zut@@
networks
gestalten
acts
Dan
internation@@
Flugzeug
weiten
Bis
flu
kümmern
radio
basis
ober@@
justice
beeindruck@@
Dat@@
seien
tent
Willi@@
habt
sper@@
worry
de-@@
Wü@@
experiments
sexu@@
Gebur@@
System@@
tox@@
gradu@@
Nerven@@
buch
sign@@
holding
conv@@
decl@@
eres
fascinating
les@@
Keine
teen@@
thy
Entwick@@
revol@@
Vari@@
stands
gendes
fortun@@
etc
Fer@@
none
Klasse
Asi@@
een
san@@
evi@@
exu@@
phys@@
bub@@
prepar@@
tur
Sand@@
acceler@@
report
saß
religious
terri@@
veröffent@@
ativ
Lernen
expon@@
deb@@
equi@@
trouble
BG
terna@@
schte
pass
Pen@@
respond
Farben
boat
Mexico
Bürger
Hinter@@
itable
necessary
däch@@
Physik
fordert
gelegt
dürfen
allge@@
mögliche
despite
Version
artists
einsetzen
Arg@@
tail
tigung
gebildet
Partner
selber
highly
Kontakt
setzung
join
echte
rock
Sur@@
hearing
rema@@
saving
inte@@
contra@@
enga@@
Karriere
cin@@
fairly
ine@@
beru@@
Tor@@
Robot@@
folge
Norden
brea@@
puzz@@
gon@@
Iraq
shift
heit@@
intervie@@
leider
compon@@
studying
aries
conference
gelöst
Mel@@
creatures
Second
modernen
Haut
Fortschritt
aker
focused
trade
fs
igh@@
Objekte
Et@@
ymp@@
failure
Privat@@
Wandel
wohner
icken
anten@@
schu@@
J
14@@
ause
scha@@
Kö@@
Zweitens
Ziele
balance
condition
significant
wen
ond
peri@@
rt
ancient
bestehen
Jahr@@
experi@@
earth
efully
cell@@
hau@@
valu@@
Zi@@
Vertrauen
ually
photograph
knowing
easily
erstaunlich
High@@
counter@@
Nichts
rule
unternehmen
Män@@
Hal@@
appreci@@
ungskraft
billions
vide@@
Wir@@
leh@@
Vielfalt
grund
app
stein
raised
steckt
distance
trum
Dam@@
deut@@
Kil@@
passed
teren
bits
ov@@
surgery
duc@@
leading
sis
European
degree
phenomenon
yn
Tum@@
dauert
Gemeinde
extreme
enni@@
anderem
Deut@@
British
Russi@@
bled
prakti@@
osis
ries
fik
osm@@
Kir@@
Aus
Stro@@
reser@@
öse
rying
straight
vot@@
warm
exer@@
gezogen
dient
consi@@
iPhone
einfacher
num@@
ail@@
deutlich
Take
Koh@@
erfolgrei@@
krieg
geist@@
regel@@
plus
laun@@
paying
nungen
gewachsen
onie
lying
Resul@@
gry
motion
offer
Milliarde
Coun@@
verdienen
moves
fla@@
bird
verfolgen
Zentrum
Fein@@
Thanks
xi@@
engine@@
organizations
tured
Hirn@@
stadt
mouse
appar@@
Komplexität
wuchs
Vision
beeinflussen
stopp@@
Zelle
some@@
class@@
identity
ünst@@
Beson@@
esses
DP
events
pedi@@
obil@@
worl@@
appen
greifen
zar@@
Last
Sommer
nar@@
passen@@
Lern@@
moment@@
creativity
C.
höre
lichsten
irgendwann
allo@@
Intelligenz
rich@@
genome
Ehr@@
vorzu@@
wander@@
erkan@@
gelangen
creates
füllt
kal@@
Regen@@
Höhe
weder
Modelle
irs
trieb
Frieden
besit@@
Mehr@@
jec@@
tempor@@
Institutionen
bo
überzeugt
jahr@@
20.
bares
shares
Niemand
schlu@@
landscape
davor
conduc@@
og
U
apart
arian
sorgen
fei@@
bitten
meth@@
hell
reck@@
gelassen
tests
forma@@
Ok
dea@@
neighb@@
Great
dimensional
gress
äter
fically
z.
zigen
elp@@
equality
einhalb
Soldaten
bers
Höh@@
finished
überrascht
städ@@
Zer@@
Wah@@
Karten
Have
ishing
automati@@
dagegen
Ep@@
gabe
trotz
Tisch
Tu@@
Zusammenhang
proble@@
Star@@
Bil@@
benen
Wahrscheinlichkeit
Erklär@@
ancest@@
erstes
surv@@
außerdem
kontrollieren
respect
ologi@@
Händen
noise
xim@@
Familien@@
hibi@@
erinnert
ball@@
Perspektive
wu@@
Peter
aktiv
Fernsehen
itely
Außen@@
rais@@
servation
heren
Der@@
aser
Babys
Wikipedia
errei@@
industrial
unk
wiederum
wieso
eten
Ani@@
Masse
Hö@@
Phili@@
pris@@
systeme
simul@@
75
hasn
Kul@@
verständlich
Gründen
Untersuch@@
collective
schlüs@@
Baby
Neuronen
hea@@
Forschungs@@
Asia
oes
moments
graph@@
weiteres
Street
suit
Wach@@
bauten
Botschaft
Strei@@
contin@@
ktionen
Interess@@
Mö@@
setzte
fossi@@
distri@@
Säu@@
Again
morgen
believed
responsible
absolute
ierende
intui@@
erstellen
thin
iden@@
angen
cum@@
tate
Geschle@@
carto@@
facts
tast@@
Materie
fän@@
endet
Massen@@
Bienen
cer
wirtschaftlichen
hinein@@
resol@@
Produk@@
effort
consciousness
wachsen@@
scho@@
fiziert
statist@@
angel@@
vast
bildung
zung
Men@@
Geri@@
zero
ami@@
letztendlich
itäts@@
Ven@@
Englisch
lucky
spaces
acqu@@
opportunities
Mess@@
accoun@@
klin@@
Progra@@
account
Sterne
opposite
pper
neuer
museum
berühm@@
entsteht
Elek@@
starb
leiden
religi@@
prison
Klassen@@
shed
linge
suffering
atively
Fluss
amerikanische
capable
rig
afraid
zität
uries
Brust@@
abilities
entwerfen
newsp@@
öh@@
behalten
Actually
aling
ultimately
Fra@@
definition
Valley
traffic
hne
Zusammenarbeit
molecules
Ok@@
compared
Innov@@
profit
bly
Kunden
alisiert
structures
Erfol@@
mir@@
typical
besitzen
falsche
teu@@
kop
cen
Ausbildung
eingesetzt
gos
rier@@
profession@@
prac@@
unt@@
Herausforderungen
beten
signal
vollkommen
Kann
Nation@@
nec@@
läch@@
Kra@@
dows
ears
sinn@@
bst@@
occur@@
ouse
füllen
Polizei
vement
Kreativität
leisch
antly
kü@@
aches
Bedingungen
töten
Vö@@
ahr@@
gewonnen
Den
easier
hes
Fisch
sw@@
previ@@
Früh@@
iegen
atten@@
chung
transi@@
cool@@
bud@@
hidden
lauf@@
agne
ree
labor
Regel
unterschiedlichen
Zent@@
verwandeln
gely
wissenschaftliche
tradi@@
treated
vulner@@
adop@@
childhood
gefallen
denk@@
thinks
sicherlich
Bank
mun@@
Transp@@
protein
tolle
drückt
alleine
Bre@@
g-@@
diox@@
stic
Zivili@@
zeichen
stern
Regi@@
reicht
Nehmen
visit
raft
geni@@
freund@@
categ@@
usw.
differently
foreign
saf@@
Außerdem
zten
rie
investieren
scheinen
Stär@@
mountain
dun@@
Wald
agen
schien
forever
nett
selts@@
algorith@@
Therap@@
x-@@
gehei@@
jährige
gle
höher
sold
zone
wave
rid
dungs@@
fix
hypo@@
verursacht
victi@@
usive
Mem@@
ld
bedro@@
electron@@
K.
Leistung
astron@@
stolz
Schwe@@
zufällig
tac@@
Hör@@
oi@@
neighborhood
yellow
break@@
ores
Biologie
Spiele
erwar@@
besor@@
trei@@
occ@@
Frank@@
accur@@
lat@@
Insekten
é
Forscher
ete
dens@@
2,@@
ject
Satur@@
oned
essor
assem@@
interact
umgehen
cycle
nes
CO@@
verhindern
collap@@
pit@@
sum
greif@@
Brenn@@
Cal@@
ter-@@
Over
lös@@
Beobach@@
ar-@@
survi@@
zubringen
bezahlen
Waffen
Fisch@@
Ever@@
nov@@
Dinosau@@
helps
concent@@
dieselbe
Bron@@
ritt@@
wärts
tdem
Dim@@
Darwin
sequences
Telef@@
filled
herausgefunden
Ah
covered
opened
Ali@@
Zun@@
Trei@@
abge@@
entlang
announ@@
l-@@
coffee
eure
quali@@
lesson
ganzes
Eigen@@
Brot
Hall@@
Konferenz
Fische
Mission
dn
Sing@@
acker
thir@@
zog
nit@@
bone
ingu@@
Erinnerung
rob@@
sculp@@
präsenti@@
brauchten
wichtigste
discovery
eline
surprise
western
sites
Very
IS@@
schm@@
tery
suppor@@
cording
Dabei
possibility
frist@@
ieten
interest@@
Bli@@
storben
besseren
Identität
trag@@
Wet@@
ernst
2005
arbeiteten
Republi@@
note
tissue
brings
sitzt
überzeugen
Trä@@
bread
lieber
breast
Bewegungen
Verletz@@
mäßig
planning
sever@@
nden
beschle@@
implic@@
Osten
verbracht
mothers
struction
eleph@@
beschäftigt
hohen
alisieren
geladen
conscious
law@@
blu@@
insects
obser@@
arms
Fuß
Videos
la
enzi@@
nie@@
kurzen
proud
Pflan@@
Nachbar@@
gie
Global
robo@@
elek@@
tausend
sick
port
inge
ham@@
motor
Did
heads
Feh@@
asses
boun@@
Apple
berü@@
character
studied
webe
agement
Großteil
Schlüssel
Verhaltens@@
sexual
Middle
beantworten
fiel
Hig@@
möglicherweise
Architek@@
harder
Beine
Ameisen
führten
Gesetze
ear
keit
vermutlich
NASA
ook
Satelli@@
unbe@@
ktiv
primar@@
pun@@
übertragen
Tradi@@
ap
Nar@@
unfortunately
esz@@
ährung
Scot@@
sig
adults
Schrift@@
unsicht@@
Krise
hinweg
fläche
Wettbewer@@
throw
Tausende
kosten@@
hunderte
cont@@
schwer@@
Mand@@
Laufe
bought
Stat@@
Microsoft
Mol@@
Spe@@
ease
wisdom
count
Schri@@
Kr@@
5,000
lautet
entirely
fik@@
fotograf@@
year-old
erwartet
Gebäu@@
clock
Ja@@
tome
Drittel
öffentliche
dium
integri@@
nerv@@
Süd@@
sorry
Test
Fäl@@
College
dynamic
bruch
Eu@@
promis@@
agers
vollständig
weiss
Hon@@
succe@@
kommunizieren
interessieren
Schau@@
durchgeführt
Sozial@@
AR@@
Metap@@
bietet
bility
geschickt
engli@@
stam@@
wom@@
Todes@@
put@@
rain@@
argu@@
V
erseits
drän@@
gig@@
sand@@
bewahr@@
letter
starke
verbreitet
somit
flüs@@
chers
kno@@
ahn@@
ünf@@
Phänomen
Viel@@
section
creation
Kern@@
tiges
obs@@
existieren
zige
ues
puts
importantly
abli@@
Lieblings@@
trained
Handy
tili@@
mäß@@
via
sudden
Lachen
separ@@
due
bestimmen
begins
turing
users
Journ@@
aming
Flä@@
wealth
communication
Industri@@
stec@@
ace@@
effici@@
desire
Maß@@
ku@@
Philosop@@
nochmal
Wind
atures
rough@@
Mechan@@
anges@@
kauf@@
Women
entstehen
catch
kaner
walls
gewand@@
riert
subst@@
übri@@
neur@@
extin@@
Hintergrund
beteili@@
engineers
gegensei@@
herunter@@
opin@@
65
limited
Kommunikation
labor@@
Eric
unt
fische
früh
However
Kön@@
Zeichen
grap@@
dreh@@
Rem@@
modi@@
mann
Sprachen
häl@@
dens
Frem@@
Seine
gnis
ernsth@@
ligen
Wass@@
Nationen
ielen
compar@@
zukünf@@
til
2-@@
benefit
care@@
buted
moun@@
Verhäl@@
sparen
Ihres
Tat@@
flight
essenti@@
ländern
bab@@
chem
Exist@@
wiesen
dieren
gewisse
ference
benötigt
Japanese
Einf@@
fashion
Fällen
Terror@@
invisible
führer
names
bedeuten
university
Falls
Finger
entspricht
ug@@
Je
ruf
echten
Ausma@@
promise
Erleb@@
profound
deser@@
sector
Cent@@
horri@@
Chirur@@
vacc@@
Spielen
Patient
univers@@
Pi@@
etten
tiver
mindestens
arbeit
dün@@
base
stress
background
prevent
campaign
X
dliche
predict
bewus@@
afford
sibilities
virtual
adly
ored
ght-@@
pas@@
begeg@@
entiert
husband
inci@@
rhyth@@
nah
ano
vehicle
verbrachte
devices
chtige
getr@@
soldiers
Is@@
stream
Chan@@
Lau@@
wake
com
praktisch
represent
Website
rants
lungs@@
weit@@
described
beinhal@@
Fakten
influence
meat
majority
laugh@@
sende
mov@@
physic@@
Neben@@
bling
inven@@
belief
tradition@@
Grenze
massi@@
atta@@
gain
Maga@@
Irak
esterday
roll
atur@@
ziel@@
letztes
spiele
contr@@
caught
nee@@
95
eas
waves
trial
kurzem
Themen
Sometimes
contact
schlimmer
ateg@@
Irgend@@
brother
erhält
environ@@
demokra@@
quanti@@
circle
Obwohl
Ecke
Sil@@
painting
Chemik@@
Tö@@
zugän@@
Fabri@@
Haufen
tue
lige
ophi@@
bev@@
wohin
meistens
professional
Vis@@
Über
erlebt
Univers@@
Gegenteil
taus@@
post@@
natürliche
schwieri@@
Elektri@@
konstru@@
Werkzeug
electrical
niem@@
Island
ica
Ple@@
wäh@@
versuchten
cheap
Ide@@
tural
strategy
Janu@@
rates
French
slowly
schmer@@
aktionen
irgendetwas
2001
gun
Martin
beschreiben
Krebs@@
Lar@@
bemerkt
zahl
tier@@
krebs
liziert
Test@@
apping
drew
genie@@
agiert
linken
weapons
ags
finan@@
sozusagen
finanzi@@
klingt
rot@@
strah@@
Schwier@@
zation
präsentiert
ason
Augenblick
Comp@@
Each
powered
osystem@@
betra@@
Sekunde
notion
Sun
ural
shapes
gewählt
convinc@@
igt
gelesen
allerdings
verwen@@
gessen
nchen
leads
kes@@
Tau@@
Fle@@
homes
whom
ommen
nächstes
gy@@
rein
factory
weird
Institute
distribution
Geräu@@
opening
Phil@@
spielte
return
amed
schule
Eig@@
verschieden@@
aner
Elektro@@
Individuen
Komp@@
Dass
2004
partment
concerned
vel
Flüs@@
simp@@
drin
mix@@
progra@@
nde
fill
moon
Einsatz
materi@@
Aufgaben
Kontext
th-@@
ghter
communic@@
sinn
glam@@
existence
lob@@
sla@@
Stadt@@
Kam@@
alize
steller
tigte
hard@@
Islam@@
32
itionen
Flag@@
App@@
hohe
ization
sichten
hair
Ed@@
shouldn
deeply
short@@
soil
grown
competition
heav@@
losing
nega@@
theit
angeneh@@
propor@@
Organisationen
gerät
19
Kombin@@
More
Sorgen
sac@@
talter
ölker@@
physici@@
ks@@
Geräte
medic@@
Planet
transform
kehren
construction
cin
hängen
fold
Zau@@
tnisse
toler@@
Straßen@@
Andere
benötigen
preser@@
gas@@
äumen
Gefahr
Sehr
govern@@
Künst@@
Para@@
kö@@
Loch
Effekt
vest@@
bst
Grün@@
musst
gespielt
markt
entwick@@
getötet
tho@@
dian
minister
replic@@
Samm@@
Spra@@
practic@@
dol@@
repe@@
Jahres
everyday
metho@@
aded
gige
nutzt
beinahe
aufhören
gebro@@
Träume
cognitive
Bush
iop@@
roten
ty@@
failed
CE@@
Strukturen
oul@@
vertrauen
magazine
Pingu@@
ßend
radik@@
photos
forder@@
zelle
weiteren
Mer@@
basiert
world@@
hoffentlich
marri@@
nutri@@
benutz@@
vity
alisten
äf@@
llen
Beim
Techni@@
denfalls
adver@@
Zuerst
civil
dennoch
Haup@@
laut
un
bestand
Gehirne
körper@@
leader
island
giant
hoff@@
constantly
verbreiten
Körpers
persönlichen
treibt
Schimpan@@
Num@@
21.
leaving
UN@@
gehabt
lernt
businesses
threat
Telefon
wenigen
richtung
analysi@@
wearing
matters
shif@@
druck
Eing@@
titude
sul@@
onnen
etzt
fab@@
Fo@@
former
weib@@
pathy
anst@@
är
Mark
zeug@@
Kindheit
classroom
sätze
Seh@@
pengu@@
poor@@
invited
Korruption
ination
komplexe
Mik@@
dor@@
kurze
Nutzen
verursa@@
bezahlt
immer@@
richtet
shi@@
Gesam@@
buchstäblich
Ach@@
bekamen
ee@@
jud@@
intellec@@
Blut
dauer@@
Sequ@@
Ham@@
corruption
warming
depression
tis
auton@@
Kaff@@
ails
Sou@@
Kev@@
High
weather
gelan@@
stie@@
aktion
stammt
Gesich@@
ränk@@
fä@@
languages
HI@@
affect
narra@@
Texas
sal
such@@
adult
Fas@@
photo
President
sön@@
cis@@
assum@@
schaute
Kreu@@
embra@@
10.000
Ah@@
wachen
cans
Get@@
Spek@@
rural
Staat
Mah@@
brilliant
resour@@
generate
versus
Gewicht
ods
osion
entliche
entstanden
tran@@
zeich@@
doppelt
gentle@@
Schwei@@
Would
fein@@
schalten
Präsident
Tab@@
manage
pay@@
Stimmen
MR@@
ständen
Titel
stood
Augen@@
Everything
Moleküle
dran
reas@@
compli@@
ierend
duce
Jungs
inning
describe
forschung
Richt@@
acking
river
modell
stück
Industrie
Drei@@
deck@@
hunder@@
fördern
Buchst@@
graph
principle
enjoy
lack
increasingly
ote@@
General
Forsch@@
m-@@
geon
Seit
akter@@
argue
civilization
einiger
ökonom@@
sieren
richtungen
schlimm@@
honest
Folgen
hoffen
therwise
sich@@
küh@@
staat@@
zin
Affen
legi@@
It@@
Bildungs@@
coral
scen@@
stuck
electro@@
Zäh@@
RN@@
Beri@@
armen
Joe
dienen
nee
perfec@@
seriously
aver@@
mysteri@@
Ausdruck
Wahrnehmung
estim@@
scene
hate
character@@
enk
100,000
Frü@@
keeping
emotions
testing
Ansicht
iling
Mexiko
ärm@@
Online-@@
steps
survival
trilli@@
effec@@
smus
lieb
Häuser
electric
brate
Wissenschaft@@
gewicht
fighting
ac
erster
Good
unterscheiden
Programm@@
Fach@@
dafri@@
lifetime
Once
Öffentlichkeit
bern
Rob@@
Geburt
neuros@@
round
beat
sume
zuneh@@
2006
Großbritannien
particles
ou
verfü@@
enting
hauptsächlich
gründet
gestern
Experimente
Nachdem
wichtigen
Diagra@@
importance
innovative
explan@@
fert
civi@@
steuern
aum
beobachtet
trait
Proble@@
anen
investment
Bildschirm
ftung
A.
Schmerz
ander
Eindruck
spieler
Cra@@
PM
norm@@
Charak@@
mas
epidem@@
Politiker
faith
hey
gather@@
letzt
gesp@@
rep@@
aled
closed
mathema@@
kennung
fizieren
advantage
exter@@
wirst
Bere@@
aufzubauen
paint
Experten
Kompon@@
Kalifornien
tot
Mond
800
ügen
Kräfte
galaxies
wegs
define
Feuer
beschloss
sprachen
Aktivität
Ghana
flag
ister
Got@@
Tun@@
Spieler
bende
chain
wunderbare
feedback
married
lossen
Lee
principles
-up
player
Wunder
II
pfe
random
tough
whenever
profi@@
vin@@
Dunk@@
fing@@
Akti@@
ogni@@
separate
organized
sist@@
politici@@
enem@@
mathematics
vergleichen
maschine
ch-@@
Brasili@@
Bru@@
bewesen
Febru@@
train@@
medizinische
standen
2,000
zählen
ande
Glau@@
accident
D.
illegal
ello
derer
bet
statistics
é@@
micros@@
Everybody
Basis
operating
partner
Code
fähigkeit
scri@@
Mütter
ink@@
erkannte
develop@@
Vorfahren
disco@@
tauchen
2011
Satz
osity
Gleiche
lem
Nachbarn
Gei@@
yra@@
begeistert
Komment@@
copy
fün@@
dahin
mon
nannte
21@@
compare
Qualität
fes@@
klass@@
stör@@
spoke
faszin@@
hem@@
pment
Mad@@
operate
bekannten
berührt
Bedroh@@
tiere
uch
geschlagen
Germany
liked
sister
fen@@
Entdeck@@
umge@@
forced
commercial
vac@@
alists
chnolog@@
Schluss
open@@
imin@@
Bereiche
normalen
Schwester
hic
willi@@
wissenschaftlichen
natur@@
richt
associated
chemistry
steu@@
beson@@
con
internationalen
Amazon
Minute
Frank
therapy
ography
Gedanke
Ganze
appropri@@
saved
sweise
blau@@
equivalent
Bruder
furcht@@
vermu@@
istisch
wobei
benefits
abetes
ähnliche
theorie
houses
Mehr
männ@@
samer
Grö@@
zurückzu@@
tent@@
sheit
facing
demand
relativ
Rat@@
tiker
designs
mmer
Verstand
eter@@
eck@@
Baum
esten
dauern
häufig
pft
new@@
länder
krank@@
Defin@@
co
underneath
fabri@@
Linien
gigkeit
stärker
Aktiv@@
daß
Erkenntnis
Zuschau@@
quest@@
beri@@
sache
Nation
Weile
funk@@
Temperatur
wirtschaftliche
Klin@@
verantwortlich
lustig
äss@@
ierter
suchte
Ton
omin@@
Schlei@@
Generationen
bewegung
ress
hoh@@
Maßstab
Folgendes
Ereig@@
flächen
anwenden
US@@
entwickelte
kannte
Maus
nicht-@@
deinen
Foundation
sens
crime
Port@@
sle@@
Could
monit@@
interaction
quantum
appear
deter@@
continent
Air@@
ament
ery
messa@@
iat@@
exists
encing
Manhat@@
rapi@@
illness
calling
satis@@
Uganda
determin@@
26
investig@@
Go
Ben
driven
property
ckets
85
Tom@@
tori@@
hang
deliver
hit@@
arts
reci@@
q@@
Sauerstoff
Sum@@
driver
Extre@@
Milli@@
Budd@@
concep@@
movies
bright
selbe
fährt
card
acked
hren@@
pfel
Ty@@
möglichkeiten
acken
Wahl@@
dex
ungewöhn@@
hyper@@
dealing
Herr
ecken
phäre
ampus
tlichen
olds
Brazil
Landwirtschaft
economics
aschen
Baum@@
consumption
plane
pre-@@
las
open-@@
Sud@@
stei@@
ordinary
komm@@
kä@@
keys
Überrasch@@
Jon@@
Smith
letters
metaphor
48
persönliche
Ei@@
Ton@@
Feld
chemicals
poetry
Entdeckung
ützen
US
beschreibt
kriegen
aft
stür@@
Audience
situ@@
poem
Insel
energie
Inn@@
wohl@@
Emo@@
ela
disku@@
assen@@
beschlossen
remote
langwei@@
friend@@
kilometers
genauer
Tests
reaction
shop
Compu@@
infin@@
ollywood
änge
kenn@@
stone
mentioned
aturen
Zuhause
Fortsch@@
Part@@
colors
äne
perfekt
verbindet
verrück@@
Skl@@
sichtlich
ena
proce@@
untersucht
Verbesser@@
avoid
ames
currently
Erkrank@@
gefangen
bekannte
inspiriert
refu@@
Lang@@
photograp@@
ischer@@
eckt
vote
airplane
volu@@
followed
volunte@@
Analy@@
dru@@
gust
exact
managed
Gegensatz
verschie@@
öffent@@
hergestellt
fellow
worüber
shark
pers
interagieren
digkeit
verblü@@
spir@@
producing
auff@@
Ul@@
Rätsel
Wör@@
an-@@
siert
erstaunliche
hopefully
controlled
gäbe
graduate
instr@@
normale
tomorrow
reali@@
spot
gewöh@@
Elemente
Knochen
Flori@@
einander@@
fingen
tations
leren
increasing
Sek@@
ships
SS
Geld@@
Eigentlich
traditionellen
Hinsicht
gests
Korea
all-@@
Long
perman@@
forests
Hund
happ@@
derungen
Tür@@
Tom
spirit
Metho@@
eth
yn@@
bele@@
contribu@@
unding
ulous
circu@@
fortunately
galax@@
dimension@@
sad
gesam@@
gap
verbess@@
Ech@@
brand
tered
Trau@@
thri@@
anti-@@
Glob@@
ergi@@
fields
gate
any@@
dinner
kr@@
ussi@@
west
fell
inform@@
erklär@@
ured
kum@@
sear@@
Teen@@
prototyp@@
chts
contri@@
wagen
eso
vö@@
iti@@
eping
klär@@
ßen@@
amon@@
milit@@
ems
Fig@@
resp@@
heu@@
Molekü@@
inal
tt
unterschie@@
fak@@
emand
hosp@@
anc@@
agen@@
kid@@
mid@@
Spezi@@
eps
phot@@
ilit@@
bekan@@
restaurant
universal
anal@@
lit
mes@@
instrument
Person@@
ident
nah@@
verstän@@
bles
erika
olle
joy
theater
haus
sav@@
sustain@@
unds
hou@@
Eben@@
Gan@@
intro@@
”
Roll@@
gorith@@
tom
ki@@
alth
ves@@
fem@@
Dor@@
diagn@@
symp@@
Schmer@@
ieder@@
aurant
ross
fore
member
mur@@
toi@@
coura@@
Mod@@
regul@@
dings
mö@@
verbrei@@
mög@@
richt@@
denten
Stre@@
tory
Geschä@@
Prof@@
nat@@
cent
Präsi@@
privi@@
hyth@@
ulp@@
mmet@@
wirtschaft
Pres@@
ution@@
senschaft
unkte
fail@@
bede@@
gent
enden@@
ament@@
feu@@
Mathemati@@
hur@@
wick@@
ßer
ometer
Hoff@@
farm
industr@@
rupp@@
differ@@
Paci@@
Schü@@
ogar
feel@@
kunft
Sat@@
Entschei@@
leb@@
iting
ban
erweise
influ@@
Russ@@
wahrschein@@
big@@
unge
außen
install@@
Meer@@
stens
rus
zeh@@
tually
are@@
chst@@
dere
spo@@
Bild@@
Prin@@
buil@@
chnologie
amoun@@
erstör@@
spac@@
bile
aring
expl@@
secre@@
well@@
stum
ible
Zeu@@
Krank@@
droh@@
räfte
shap@@
steri@@
zte
Sci@@
lichkeiten
ölkerung
ßlich
life@@
etze
tage
dire@@
Schlüs@@
jähri@@
änder
andel
intelligen@@
haps
Prinzi@@
Werk@@
kontro@@
osed
free@@
Kontro@@
abet@@
bestimm@@
ound
ungs
Amerikan@@
woll@@
vehic@@
add@@
jects
ox@@
hig@@
wirtschaft@@
absol@@
deci@@
anks
gab@@
Terr@@
fäh@@
arily
beobach@@
stet
philosop@@
Demok@@
Chr@@
fam@@
visible
low@@
aci@@
Jahrhunder@@
intelli@@
Gener@@
acci@@
gig
benö@@
fang
Diag@@
lled
impan@@
idem@@
enge
Fir@@
Behand@@
treat@@
ished
neighbor@@
Geor@@
charac@@
rom
ough@@
Every@@
cht-@@
osau@@
ades
foc@@
itze
Bec@@
SA
Bakter@@
unkt
schung
ool
Regier@@
jenigen
ahr
Materi@@
thin@@
typic@@
dam
erie
lust@@
pati@@
Archit@@
genheit
samkeit
anim@@
temper@@
Arm@@
Ander@@
tzdem
rote
läs@@
Obje@@
ypen
success@@
tries
ätzen
ema@@
ys@@
thr@@
Ner@@
Rich@@
diesel@@
Isra@@
Erkenn@@
esp@@
partic@@
komplet@@
behand@@
bein@@
ehmen
cam@@
nst
Sozi@@
rand@@
Mein@@
Exper@@
wise
rieb
secon@@
Goog@@
dnis
hig
Taus@@
year-@@
bru@@
Experim@@
competi@@
decken
fascin@@
bedeu@@
conflic@@
hrt
Wahrschein@@
Europ@@
NA@@
eing
ichts
ple@@
comple@@
pose
Mög@@
bacter@@
seits
zem
Dur@@
chall@@
atest
nut@@
Ear@@
agi@@
Tei@@
schö@@
favor@@
ährt
genau@@
Y
Spa@@
stol@@
signific@@
ograp@@
organiz@@
concer@@
hous@@
Pos@@
tist@@
dow
ester@@
interessi@@
vic@@
außer@@
blich
Ira@@
masch@@
run@@
fill@@
tici@@
wever
äuser
Erinn@@
won@@
Q
cky
certain@@
struktur
örper@@
nachzu@@
zeitig
Schwi@@
plast@@
amerikan@@
…
Erei@@
seri@@
etry
überzeu@@
Pau@@
Hän@@
tting
gery
dopp@@
unity
Temper@@
intu@@
vent
herauszu@@
erstoff
bezah@@
Individu@@
ington
ück
undation
orie
kümm@@
Tem@@
ossi@@
gangen
utzutage
Amaz@@
phenomen@@
exam@@
Ther@@
weap@@
got@@
ould
citi@@
halten@@
demo@@
diffic@@
ghtly
Kommunik@@
dies@@
oxy@@
á@@
peti@@
osphere
zine
mä@@
inging
normal@@
zept
+
Lon@@
curr@@
ech
cot@@
troffen
script
Beisp@@
antworten
susta@@
ötzlich
strateg@@
wirkungen
Fern@@
commun@@
ision
staun@@
Amei@@
soll@@
mous
colleag@@
Geschi@@
Japan@@
fig
vered
ysi@@
relev@@
Gehir@@
Relig@@
erinn@@
Isl@@
probab@@
rem
fluss
ickt
Bewusst@@
wischen
gefühl
Pak@@
associ@@
Lauf@@
verur@@
Schön@@
zens
entschei@@
diff@@
offensicht@@
ternative
Beweg@@
stom@@
ensicht@@
ßer@@
Inse@@
danger@@
äte
affen
read@@
pop@@
fot@@
partici@@
follo@@
vels
Glei@@
interess@@
Jour@@
ähri@@
Wahr@@
throp@@
Zus@@
with@@
system@@
trie@@
Wirt@@
ingungen
falt
kür@@
windigkeit
oid
chil@@
erzeu@@
llig
intel@@
Engli@@
schir@@
erlau@@
verbin@@
jour@@
figh@@
Gefän@@
Mäd@@
compassi@@
S.
Institu@@
Pati@@
ID@@
Mex@@
wirt@@
Leu@@
kei@@
dacht
hr
extrem@@
einzel@@
ult
Tim@@
edback
event@@
cess
deed
Joh@@
sue
ign
olo@@
richti@@
brilli@@
unterschei@@
architec@@
beha@@
sci@@
blei@@
immedi@@
vili@@
ests
ativ@@
Stad@@
osy@@
zufäl@@
consci@@
Nigeri@@
Freu@@
what@@
simil@@
dren
decis@@
Technologi@@
Masch@@
stly
iele
einfl@@
Bedeut@@
eili@@
ularly
tra
arly
metap@@
blü@@
ings@@
ror@@
geg@@
Liebl@@
gebung
Rel@@
gebil@@
afri@@
civiliz@@
Ergeb@@
beh@@
Kore@@
_
condi@@
Zusam@@
bec@@
Gesund@@
mote
verhin@@
einzi@@
listen@@
dow@@
relig@@
help@@
män@@
nific@@
mers
Gedan@@
andem
Bür@@
ernen
Ressour@@
gelö@@
chni@@
Bit@@
ffekt
unterschied@@
utions
trou@@
bracht
vat@@
soldi@@
Jan@@
erfol@@
seem@@
ico
benef@@
traff@@
quot@@
enn
genan@@
irur@@
perf@@
manu@@
heal@@
ognitive
ergie
berüh@@
Mic@@
clear@@
cris@@
carb@@
beginn@@
compu@@
verantwor@@
pfer
challeng@@
rely
Indu@@
sth@@
dür@@
tioned
Z
knowle@@
hood
abo@@
Neur@@
‘
utzen
amera
immel
itä@@
ettbewer@@
beein@@
Publi@@
ür
geschi@@
Audi@@
Netz@@
ölk@@
teach@@
Außer@@
otyp@@
alk
Kind@@
Secon@@
Phän@@
wea@@
ziem@@
commer@@
ston
zel@@
tty
zy
Bildschir@@
AID@@
Gef@@
eful
fair@@
there@@
senti@@
valent
Afgh@@
í@@
è@@
takt
denly
ousness
E-@@
gewäh@@
Ye@@
wee@@
ermög@@
Twit@@
Grupp@@
fft
them@@
maga@@
stem@@
Wä@@
›
Brazi@@
earli@@
‹
Perspek@@
distribu@@
titu@@
urity
schieden
Konfer@@
mmt
Dies@@
princi@@
anno@@
=
fashi@@
munik@@
Müt@@
landsc@@
him@@
fut@@
extre@@
utely
sprün@@
zusam@@
das@@
etz
hause
biet@@
ules
riere
versu@@
forman@@
anni@@
ruption
ritt
prise
Bed@@
coll@@
Vereinig@@
ilt
ückt
kturen
gir@@
fül@@
issu@@
näch@@
remark@@
schied
Fu@@
°
zusagen
incre@@
ã@@
ühne
asili@@
gefähr
hus@@
überras@@
β@@
Kun@@
Verantwor@@
konom@@
Afghan@@
ensive
campa@@
iko
dden
schaf@@
twi@@
agieren
eicht
atm@@
tendlich
wichti@@
Euro@@
Face@@
suc@@
Nä@@
@
scienti@@
gespro@@
ächlich
Gele@@
hili@@
eases
Öff@@
ouldn
TE@@
boo@@
beschrei@@
omen@@
½
complic@@
Gesell@@
begeist@@
Fen@@
Leiden@@
ituation
cau@@
notic@@
mic@@
tice
Wiki@@
pedia
perspec@@
Ord@@
titles
depend@@
ó@@
olly@@
ekü@@
Kran@@
ativity
vid
ote
die@@
Milliar@@
impos@@
hundre@@
j
istry
has@@
timately
Soh@@
selves
MI@@
blem
metaph@@
know@@
Ama@@
Publik@@
´
stad@@
Ih@@
strie
jem@@
kommuni@@
performan@@
eute
tish
uter
Kör@@
kam@@
mente
ç@@
näh@@
Verhalten@@
Verfü@@
..@@
umindest
ktur
beeinflus@@
beauti@@
aliforni@@
pite
robot@@
doll@@
bess@@
oce@@
through@@
angen@@
künf@@
Identit@@
eim@@
Harv@@
Americ@@
äbe
repr@@
eci@@
yel@@
eful@@
infra@@
ddle
sibility
acity
ratie
ilie
stab
ämlich
#
ritanni@@
eign
ollar
)
tremend@@
Wahrneh@@
enze
maj@@
insec@@
ead
wichtig@@
themati@@
Verbin@@
kens@@
technologi@@
Af@@
year@@
viron@@
trauen
Verstän@@
unsch
thous@@
Angel@@
compan@@
grow@@
gether
som@@
electri@@
famili@@
You@@
actly
energ@@
phen@@
oppos@@
chmal
haupt
ween
Arti@@
thou@@
soc@@
Städ@@
Poliz@@
Them@@
pho@@
weir@@
glau@@
chnologi@@
sere
avail@@
two@@
Imag@@
utzt
Stru@@
colle@@
q
dürf@@
Intelligen@@
r.
ñ@@
einfa@@
enever
stice
igarti@@
esn
grou@@
vices
Großbritanni@@
Infra@@
iPh@@
divers@@
illion
Engl@@
indu@@
oug@@
²
Atmos@@
Iden@@
Öffent@@
ines@@
ehow
thema@@
ieties
Bewus@@
Unterstütz@@
busin@@
erikan@@
sych@@
YouTu@@
omp@@
child@@
‚
Lös@@
sibly
Europe@@
abri@@
bedingt
^
Kreativ@@
Dah@@
complex@@
Kaliforni@@
orrow
Din@@
sensch@@
vul@@
ó
gewach@@
litt@@
necess@@
Chic@@
í
‟
‒
­
ü
€
á
(
*
à
è
ë@@
ê@@
É@@
ï@@
ø@@
ć


â
â@@
£
ú@@

³
ý@@

×
ä
β
®
送@@
ù
ě@@
ø
ë
Č@@
©
葱
你@@
ô@@
œ@@
±
¾
¶
к@@
Ä

ù@@

Ű@@
¼
`
﻿
`@@
ō@@
º@@
ö
à@@
î@@
š@@
，
√
ò@@
